alignas(16) const unsigned char g_model[] = {
  0x1c, 0x00, 0x00, 0x00, 0x54, 0x46, 0x4c, 0x33, 0x14, 0x00, 0x20, 0x00,
  0x1c, 0x00, 0x18, 0x00, 0x14, 0x00, 0x10, 0x00, 0x0c, 0x00, 0x00, 0x00,
  0x08, 0x00, 0x04, 0x00, 0x14, 0x00, 0x00, 0x00, 0x1c, 0x00, 0x00, 0x00,
  0x1c, 0x00, 0x00, 0x00, 0x74, 0x00, 0x00, 0x00, 0x08, 0x0e, 0x00, 0x00,
  0x18, 0x0e, 0x00, 0x00, 0x78, 0x15, 0x00, 0x00, 0x03, 0x00, 0x00, 0x00,
  0x00, 0x00, 0x00, 0x00, 0x02, 0x00, 0x00, 0x00, 0x34, 0x00, 0x00, 0x00,
  0x04, 0x00, 0x00, 0x00, 0xdc, 0xff, 0xff, 0xff, 0x12, 0x00, 0x00, 0x00,
  0x04, 0x00, 0x00, 0x00, 0x13, 0x00, 0x00, 0x00, 0x43, 0x4f, 0x4e, 0x56,
  0x45, 0x52, 0x53, 0x49, 0x4f, 0x4e, 0x5f, 0x4d, 0x45, 0x54, 0x41, 0x44,
  0x41, 0x54, 0x41, 0x00, 0x08, 0x00, 0x0c, 0x00, 0x08, 0x00, 0x04, 0x00,
  0x08, 0x00, 0x00, 0x00, 0x11, 0x00, 0x00, 0x00, 0x04, 0x00, 0x00, 0x00,
  0x13, 0x00, 0x00, 0x00, 0x6d, 0x69, 0x6e, 0x5f, 0x72, 0x75, 0x6e, 0x74,
  0x69, 0x6d, 0x65, 0x5f, 0x76, 0x65, 0x72, 0x73, 0x69, 0x6f, 0x6e, 0x00,
  0x13, 0x00, 0x00, 0x00, 0x90, 0x0d, 0x00, 0x00, 0x88, 0x0d, 0x00, 0x00,
  0xf8, 0x0b, 0x00, 0x00, 0xe8, 0x02, 0x00, 0x00, 0x18, 0x02, 0x00, 0x00,
  0xfc, 0x01, 0x00, 0x00, 0xdc, 0x01, 0x00, 0x00, 0x6c, 0x01, 0x00, 0x00,
  0xfc, 0x00, 0x00, 0x00, 0xe8, 0x00, 0x00, 0x00, 0xcc, 0x00, 0x00, 0x00,
  0xc4, 0x00, 0x00, 0x00, 0xbc, 0x00, 0x00, 0x00, 0xb4, 0x00, 0x00, 0x00,
  0xac, 0x00, 0x00, 0x00, 0xa4, 0x00, 0x00, 0x00, 0x9c, 0x00, 0x00, 0x00,
  0x7c, 0x00, 0x00, 0x00, 0x04, 0x00, 0x00, 0x00, 0xfe, 0xf1, 0xff, 0xff,
  0x04, 0x00, 0x00, 0x00, 0x68, 0x00, 0x00, 0x00, 0x10, 0x00, 0x00, 0x00,
  0x00, 0x00, 0x00, 0x00, 0x08, 0x00, 0x0e, 0x00, 0x08, 0x00, 0x04, 0x00,
  0x08, 0x00, 0x00, 0x00, 0x14, 0x00, 0x00, 0x00, 0x2c, 0x00, 0x00, 0x00,
  0x00, 0x00, 0x0a, 0x00, 0x0c, 0x00, 0x08, 0x00, 0x00, 0x00, 0x07, 0x00,
  0x0a, 0x00, 0x00, 0x00, 0x00, 0x00, 0x00, 0x01, 0x04, 0x00, 0x00, 0x00,
  0x00, 0x00, 0x00, 0x00, 0x0c, 0x00, 0x18, 0x00, 0x14, 0x00, 0x10, 0x00,
  0x0c, 0x00, 0x04, 0x00, 0x0c, 0x00, 0x00, 0x00, 0x1c, 0x70, 0x82, 0x28,
  0x1e, 0xaf, 0xef, 0x39, 0x03, 0x00, 0x00, 0x00, 0x02, 0x00, 0x00, 0x00,
  0x04, 0x00, 0x00, 0x00, 0x06, 0x00, 0x00, 0x00, 0x32, 0x2e, 0x31, 0x38,
  0x2e, 0x30, 0x00, 0x00, 0x72, 0xf2, 0xff, 0xff, 0x04, 0x00, 0x00, 0x00,
  0x10, 0x00, 0x00, 0x00, 0x31, 0x2e, 0x36, 0x2e, 0x30, 0x00, 0x00, 0x00,
  0x00, 0x00, 0x00, 0x00, 0x00, 0x00, 0x00, 0x00, 0xf4, 0xeb, 0xff, 0xff,
  0xf8, 0xeb, 0xff, 0xff, 0xfc, 0xeb, 0xff, 0xff, 0x00, 0xec, 0xff, 0xff,
  0x04, 0xec, 0xff, 0xff, 0x08, 0xec, 0xff, 0xff, 0xa6, 0xf2, 0xff, 0xff,
  0x04, 0x00, 0x00, 0x00, 0x0c, 0x00, 0x00, 0x00, 0x00, 0x00, 0x00, 0x00,
  0x02, 0x00, 0x00, 0x00, 0x01, 0x00, 0x00, 0x00, 0xbe, 0xf2, 0xff, 0xff,
  0x04, 0x00, 0x00, 0x00, 0x04, 0x00, 0x00, 0x00, 0x09, 0x00, 0x00, 0x00,
  0xce, 0xf2, 0xff, 0xff, 0x04, 0x00, 0x00, 0x00, 0x60, 0x00, 0x00, 0x00,
  0xc4, 0xb8, 0xa6, 0x3d, 0x6b, 0xd6, 0x2b, 0x3f, 0x51, 0x10, 0x73, 0x3d,
  0x81, 0x60, 0xcc, 0x3d, 0x75, 0xe4, 0xfa, 0x3b, 0x1a, 0x7b, 0xd9, 0x3d,
  0xa8, 0xc2, 0x2d, 0x3e, 0xb9, 0x36, 0xd4, 0x3d, 0xee, 0x6e, 0xa3, 0x3d,
  0xc0, 0x6c, 0x59, 0x3e, 0x2b, 0x3d, 0x79, 0x3d, 0xdd, 0x7b, 0xa0, 0x3e,
  0xf3, 0x1f, 0xc5, 0x3d, 0x72, 0xdb, 0xf6, 0xbc, 0xcc, 0x76, 0xfb, 0x3e,
  0xff, 0x47, 0xb8, 0x3d, 0x57, 0x66, 0x0f, 0x3f, 0x58, 0xa1, 0xef, 0xbd,
  0x7f, 0xee, 0x9b, 0x3d, 0xa9, 0xee, 0x1b, 0xbe, 0xdc, 0x7f, 0x42, 0x3e,
  0xb4, 0x7d, 0x28, 0x3d, 0x13, 0x84, 0x91, 0x3d, 0xfc, 0x15, 0x50, 0xbe,
  0x3a, 0xf3, 0xff, 0xff, 0x04, 0x00, 0x00, 0x00, 0x60, 0x00, 0x00, 0x00,
  0xfe, 0xe6, 0x81, 0x3f, 0xa0, 0xe0, 0x2e, 0x3f, 0xf9, 0xda, 0xcf, 0xbe,
  0x62, 0xe8, 0xa4, 0x3e, 0x58, 0x3e, 0x12, 0x3f, 0x87, 0x76, 0x9c, 0xbe,
  0xb0, 0x6f, 0x2c, 0xbe, 0x78, 0xfa, 0x2a, 0xbe, 0xd0, 0xf7, 0x17, 0xbf,
  0xd4, 0xf4, 0x5c, 0xbe, 0x92, 0x37, 0x8b, 0x3e, 0x18, 0x7e, 0x13, 0x3f,
  0xbd, 0xae, 0xc8, 0x3d, 0xa6, 0x4c, 0x2f, 0xbf, 0xcc, 0x98, 0xca, 0x3e,
  0x04, 0x76, 0x29, 0xbe, 0x1d, 0xab, 0x84, 0x3f, 0x73, 0x93, 0x32, 0xbf,
  0xf4, 0x68, 0x29, 0xbe, 0x34, 0x64, 0x3a, 0x3f, 0x2a, 0xef, 0x88, 0x3e,
  0xd2, 0xba, 0x5a, 0xbe, 0xd9, 0xdd, 0x0c, 0xbf, 0x0b, 0xa9, 0xa1, 0x3d,
  0xa6, 0xf3, 0xff, 0xff, 0x04, 0x00, 0x00, 0x00, 0x10, 0x00, 0x00, 0x00,
  0x3e, 0xb8, 0x10, 0xbf, 0x60, 0x54, 0x29, 0x3e, 0x22, 0x96, 0x96, 0xbf,
  0x17, 0xe8, 0x14, 0xbe, 0xc2, 0xf3, 0xff, 0xff, 0x04, 0x00, 0x00, 0x00,
  0x0c, 0x00, 0x00, 0x00, 0x01, 0x00, 0x00, 0x00, 0x0a, 0x00, 0x00, 0x00,
  0x18, 0x00, 0x00, 0x00, 0xda, 0xf3, 0xff, 0xff, 0x04, 0x00, 0x00, 0x00,
  0xc0, 0x00, 0x00, 0x00, 0xc4, 0x14, 0xd0, 0xbe, 0xc4, 0xc1, 0x32, 0x3f,
  0xe9, 0x34, 0x38, 0x3f, 0xc1, 0xec, 0x82, 0xbe, 0x06, 0xc9, 0x60, 0x3d,
  0xa9, 0xef, 0xd4, 0xbe, 0x3c, 0x97, 0xe7, 0xbe, 0x4b, 0x5b, 0xb7, 0xbe,
  0xa8, 0x64, 0xcd, 0xbd, 0x88, 0xa1, 0xc8, 0x3e, 0x70, 0xff, 0xa5, 0xbd,
  0x10, 0x14, 0x4b, 0x3d, 0x82, 0xb8, 0x0a, 0xbf, 0x82, 0x74, 0xe3, 0xbe,
  0x4f, 0xb6, 0x1c, 0xbf, 0x45, 0x1b, 0x02, 0xbf, 0x99, 0xe1, 0x03, 0x3f,
  0xbf, 0x3f, 0x6c, 0x3e, 0x51, 0xa3, 0x2c, 0xbf, 0x00, 0xb4, 0xf1, 0xbd,
  0xf4, 0x28, 0x4e, 0xbc, 0x31, 0x1a, 0xa3, 0x3e, 0x36, 0xe1, 0x1f, 0x3f,
  0x9b, 0x34, 0x10, 0x3e, 0x44, 0x55, 0xe8, 0x3e, 0x1f, 0x70, 0x9c, 0xbe,
  0xc0, 0x44, 0xbd, 0xbc, 0xf3, 0x8c, 0xda, 0xbe, 0xe3, 0x2e, 0xa6, 0x3d,
  0x84, 0xaf, 0x17, 0x3f, 0x65, 0x01, 0xde, 0x3e, 0xe0, 0xf1, 0x3b, 0x3f,
  0x0b, 0x17, 0x1c, 0xbe, 0x3b, 0x9d, 0x0a, 0x3e, 0x3f, 0xcf, 0x98, 0x3d,
  0x59, 0x17, 0xfb, 0x3e, 0x81, 0x66, 0x26, 0xbf, 0x1b, 0xcd, 0xb1, 0xbe,
  0x92, 0x60, 0x09, 0x3e, 0x55, 0xc2, 0xd9, 0xbe, 0xa4, 0x92, 0x0e, 0x3e,
  0xe0, 0xf4, 0x19, 0xbe, 0x98, 0xf1, 0x37, 0xbe, 0x50, 0xda, 0xe5, 0x3e,
  0x5f, 0xbe, 0xf9, 0x3e, 0xc4, 0x57, 0x1f, 0x3f, 0x79, 0x03, 0xa1, 0x3e,
  0x02, 0x50, 0x51, 0xbd, 0xa6, 0xf4, 0xff, 0xff, 0x04, 0x00, 0x00, 0x00,
  0x00, 0x09, 0x00, 0x00, 0xf4, 0x7e, 0xa1, 0x3d, 0xc8, 0x87, 0x2d, 0xbe,
  0x49, 0xe9, 0x2e, 0xbe, 0x80, 0x66, 0x28, 0xbb, 0xe8, 0x78, 0x2b, 0xbd,
  0x08, 0x59, 0x06, 0x3e, 0x9b, 0x87, 0x4a, 0xbe, 0x14, 0xfc, 0x04, 0xbd,
  0x61, 0xfa, 0x21, 0xbe, 0x68, 0x8d, 0xf3, 0xbc, 0xe1, 0x96, 0xd5, 0xbd,
  0x5c, 0x91, 0x83, 0x3d, 0x00, 0xdc, 0x2e, 0xbe, 0x2d, 0x6e, 0x24, 0xbe,
  0xc7, 0x3c, 0xed, 0xbd, 0xf9, 0x11, 0x37, 0xbe, 0x16, 0xf3, 0x03, 0x3e,
  0xd0, 0x4e, 0xef, 0xbc, 0xc7, 0x42, 0xe8, 0xbd, 0xee, 0x77, 0x12, 0x3e,
  0xa0, 0xb0, 0x3d, 0xbd, 0xa4, 0x35, 0xd8, 0x3d, 0x06, 0x97, 0x81, 0xbd,
  0x0a, 0xe1, 0x2e, 0xbe, 0x49, 0x6c, 0x3d, 0x3f, 0x7e, 0x39, 0x5e, 0x3f,
  0x28, 0xc5, 0x2e, 0xbe, 0x78, 0x11, 0xae, 0x3c, 0x8d, 0xfe, 0x50, 0x3f,
  0x00, 0xed, 0xbf, 0x3c, 0xc0, 0x84, 0xa5, 0xbb, 0x9a, 0xf2, 0x81, 0xbd,
  0x21, 0xa1, 0x0e, 0x3f, 0x00, 0x5f, 0x08, 0x3d, 0x34, 0x46, 0x1d, 0x3f,
  0x8e, 0xd6, 0x10, 0x3f, 0x3d, 0x1d, 0x31, 0x3f, 0x8d, 0x16, 0x0f, 0xbe,
  0x84, 0xfe, 0x4e, 0x3f, 0xc7, 0x5b, 0x60, 0x3f, 0xb3, 0xa1, 0x81, 0x3f,
  0xaf, 0x96, 0x13, 0x3f, 0xd4, 0xea, 0xe3, 0x3d, 0xe2, 0x29, 0x86, 0x3f,
  0xd8, 0xd1, 0x41, 0x3f, 0x81, 0x61, 0x12, 0x3f, 0xd9, 0x83, 0x56, 0x3f,
  0xa6, 0x64, 0x65, 0x3f, 0x86, 0x12, 0xda, 0x3e, 0xa7, 0xda, 0x3a, 0x3d,
  0x8c, 0x16, 0xab, 0xbd, 0x9f, 0x13, 0xe9, 0xbd, 0x64, 0x46, 0x78, 0x3e,
  0x12, 0xfb, 0x2b, 0x3e, 0xcc, 0x81, 0x4a, 0xbd, 0x00, 0x3c, 0xef, 0x3b,
  0x56, 0x75, 0x84, 0xbe, 0x60, 0x8e, 0x14, 0xbc, 0x82, 0xb0, 0xbd, 0xbd,
  0xfd, 0xba, 0x33, 0xbe, 0xf6, 0xeb, 0xef, 0x3d, 0x40, 0x3a, 0x29, 0xbe,
  0x48, 0x0a, 0x94, 0xbd, 0x95, 0xc6, 0x8a, 0xbd, 0xd6, 0x8f, 0x5b, 0x3e,
  0x59, 0xc8, 0x93, 0x3d, 0x6a, 0x04, 0x85, 0xbd, 0xae, 0x4c, 0x10, 0x3e,
  0x09, 0xe0, 0xa7, 0x3d, 0x07, 0xf2, 0xb0, 0x3e, 0xe3, 0xf3, 0x9d, 0xbb,
  0x54, 0xb5, 0xe3, 0x3d, 0x41, 0x52, 0x2f, 0x3f, 0xb3, 0xc3, 0xbf, 0x3c,
  0x34, 0xde, 0x70, 0x3b, 0x10, 0xec, 0x64, 0xbd, 0xae, 0x65, 0x3a, 0x3f,
  0x5c, 0x71, 0x96, 0x3d, 0x4b, 0x30, 0x45, 0xbe, 0xa4, 0x9c, 0x1c, 0x3e,
  0x5c, 0xe5, 0xb6, 0xba, 0x19, 0xb6, 0x42, 0xbe, 0x13, 0x0e, 0x83, 0x3d,
  0x4b, 0x01, 0xe8, 0x3d, 0xcc, 0x82, 0x67, 0x3d, 0xb8, 0x9e, 0x2a, 0x3e,
  0xd3, 0xf9, 0x99, 0xbb, 0xa6, 0x8b, 0x42, 0xbe, 0xe2, 0x23, 0x16, 0x3f,
  0xe1, 0xe7, 0x02, 0x3e, 0xe8, 0x12, 0xc9, 0xbd, 0x93, 0xf2, 0xb9, 0x3d,
  0xb3, 0xe3, 0x1d, 0x3d, 0xa8, 0x0b, 0xa1, 0x3e, 0xa7, 0xcf, 0xb7, 0xbc,
  0x05, 0xfd, 0x91, 0x3d, 0x6c, 0xda, 0x24, 0xbe, 0x3e, 0x34, 0xc8, 0x3d,
  0x46, 0x82, 0x0d, 0x3e, 0xac, 0x95, 0xea, 0x3d, 0xc1, 0x4c, 0x3a, 0x3e,
  0x70, 0x09, 0x12, 0xbc, 0x6f, 0x99, 0x13, 0xbe, 0x40, 0xb6, 0x18, 0x3c,
  0x6f, 0x26, 0xe5, 0xbd, 0x44, 0x93, 0x93, 0x3d, 0x1e, 0x23, 0x16, 0x3e,
  0xb6, 0x3e, 0x11, 0xbe, 0x77, 0x6b, 0xe7, 0xbc, 0xb0, 0x4d, 0x4b, 0x3e,
  0x5c, 0x59, 0x42, 0xbe, 0x53, 0x18, 0x8d, 0xbd, 0x20, 0x46, 0x33, 0x3e,
  0x5f, 0x4e, 0xc4, 0x3d, 0xf8, 0xaa, 0x72, 0x3d, 0x27, 0x2e, 0xea, 0xbd,
  0x6b, 0xba, 0x43, 0xbd, 0xc7, 0x55, 0x6b, 0xbe, 0x8b, 0x0f, 0x77, 0xbe,
  0xfc, 0x1e, 0x68, 0xbe, 0xdd, 0x05, 0x11, 0x3f, 0x7b, 0x24, 0x01, 0x3e,
  0xda, 0x86, 0xad, 0x3d, 0x38, 0x01, 0x52, 0xbd, 0x90, 0x5b, 0x09, 0x3f,
  0x28, 0xd9, 0x5c, 0xbd, 0x24, 0x1c, 0x11, 0x3e, 0x20, 0xb2, 0xd9, 0xbb,
  0x86, 0x5e, 0x2c, 0xbe, 0xc8, 0x59, 0x69, 0xbd, 0x54, 0x46, 0xa7, 0xbd,
  0xdf, 0x88, 0x6b, 0xbe, 0xf9, 0x18, 0xdb, 0x3c, 0xa8, 0xbd, 0x7e, 0xbd,
  0x66, 0xec, 0x31, 0x3d, 0xac, 0x20, 0x8d, 0x3d, 0x4d, 0xde, 0xea, 0x3e,
  0x66, 0x08, 0x12, 0x3d, 0x38, 0x0c, 0x27, 0x3d, 0xeb, 0x1a, 0x65, 0x3e,
  0xb9, 0x4e, 0x1b, 0xbe, 0x8b, 0x69, 0x1e, 0x3e, 0x4f, 0xf7, 0x05, 0xbe,
  0x36, 0x57, 0x10, 0x3e, 0xc2, 0xa5, 0xf4, 0x3d, 0xdc, 0xb1, 0x9a, 0xbc,
  0x92, 0x85, 0x52, 0x3d, 0xac, 0x8e, 0x39, 0x3e, 0x75, 0x2a, 0x34, 0x3f,
  0x58, 0x98, 0x43, 0xbe, 0xf3, 0xf4, 0x12, 0xbe, 0xb8, 0xab, 0x4a, 0x3e,
  0xff, 0xf9, 0x1c, 0x3e, 0x9a, 0x07, 0x33, 0xbe, 0x61, 0xd9, 0xff, 0x3d,
  0xe2, 0x66, 0x54, 0x3e, 0x6e, 0x03, 0x21, 0x3d, 0x81, 0x8e, 0x20, 0xbe,
  0xa3, 0xfb, 0x87, 0x3d, 0xf4, 0x7c, 0x3e, 0x3d, 0xa1, 0x2a, 0xfd, 0x3e,
  0xb8, 0x07, 0x88, 0x3e, 0x48, 0xb7, 0xc8, 0x3d, 0xe2, 0x6b, 0x29, 0xbe,
  0xe1, 0x6d, 0x3a, 0x3d, 0x1a, 0x6e, 0x0c, 0x3d, 0x0a, 0x32, 0x98, 0x3e,
  0xb3, 0xf8, 0x9c, 0x3e, 0xc1, 0xd7, 0x27, 0x3e, 0xa3, 0xe1, 0x76, 0x3d,
  0x30, 0x49, 0x32, 0xbd, 0x60, 0xbd, 0xa6, 0xbb, 0x2f, 0x99, 0x29, 0x3d,
  0xe2, 0x2e, 0x35, 0xbe, 0x80, 0x9b, 0x4f, 0x3c, 0xcd, 0xe7, 0x29, 0xbe,
  0xaa, 0x16, 0x72, 0xbe, 0xc0, 0x8f, 0xdf, 0xbb, 0x1a, 0x9f, 0xcb, 0xbd,
  0x02, 0x1b, 0x26, 0xbe, 0x0b, 0x5b, 0xd1, 0x3c, 0x70, 0x3c, 0x08, 0x3c,
  0x84, 0xb2, 0x57, 0xbb, 0x99, 0x3d, 0x18, 0xbe, 0x5d, 0x88, 0x68, 0xbe,
  0x3e, 0x30, 0xe0, 0xbc, 0x39, 0x8b, 0xaa, 0xbd, 0x60, 0xcb, 0x9e, 0xbd,
  0xc7, 0x94, 0xf7, 0x3d, 0xc8, 0x65, 0x44, 0x3b, 0x9b, 0xfa, 0x73, 0x3d,
  0xb1, 0x2c, 0xaf, 0xbd, 0x85, 0xcd, 0x8e, 0x3e, 0x5c, 0x06, 0xe9, 0x3c,
  0x25, 0x51, 0xbc, 0xbd, 0x70, 0x30, 0xcf, 0x3c, 0x4b, 0xa3, 0xce, 0x3e,
  0xaa, 0x94, 0x1d, 0x3e, 0xb4, 0x63, 0x0e, 0xbe, 0x12, 0x77, 0x35, 0x3e,
  0x12, 0x92, 0xda, 0x3d, 0x70, 0x02, 0x1e, 0x3e, 0xef, 0x5b, 0x99, 0x3d,
  0x83, 0x1a, 0xfa, 0x3c, 0x7a, 0xfc, 0xbd, 0xbc, 0xc0, 0x88, 0x55, 0xbb,
  0xf9, 0xe7, 0x02, 0xbe, 0x05, 0x5e, 0x77, 0xbe, 0x88, 0xee, 0x56, 0x3f,
  0x8f, 0xc9, 0x74, 0xbd, 0x7c, 0x9d, 0xc4, 0x3d, 0x5d, 0x74, 0x59, 0x3d,
  0x6f, 0x8a, 0x62, 0x3d, 0x59, 0xd1, 0x1e, 0x3d, 0x13, 0x8d, 0x5b, 0xbe,
  0x2c, 0xbb, 0x0e, 0x3e, 0x3f, 0x68, 0x9f, 0x3e, 0x1e, 0x47, 0xad, 0x3d,
  0xf3, 0xc9, 0x4d, 0xbe, 0x30, 0x1b, 0x62, 0x3c, 0x97, 0x50, 0xbe, 0x3e,
  0x20, 0x5c, 0xbf, 0xbc, 0x40, 0xcc, 0x30, 0xbc, 0x4e, 0x0d, 0x13, 0xbe,
  0x21, 0xce, 0x87, 0xbe, 0x80, 0x17, 0xb0, 0x3a, 0xf7, 0x6e, 0x04, 0x3e,
  0x14, 0xc0, 0x1a, 0x3e, 0x7c, 0x16, 0x10, 0xbe, 0x50, 0x86, 0x14, 0xbd,
  0x6e, 0x22, 0x6c, 0xbe, 0xad, 0x61, 0x62, 0xbe, 0xca, 0x70, 0x8e, 0x3e,
  0x29, 0xd5, 0xef, 0x3d, 0xc0, 0x1f, 0x5a, 0xbd, 0xf7, 0xcc, 0x6d, 0x3e,
  0x3c, 0xef, 0x3d, 0x3e, 0xd0, 0x23, 0x10, 0x3d, 0x2a, 0x89, 0xd2, 0x3d,
  0xa1, 0x89, 0xe0, 0x3d, 0xaf, 0xd9, 0xfd, 0x3e, 0x0c, 0x13, 0x10, 0xba,
  0xc9, 0xf6, 0x1e, 0xbe, 0x9e, 0xd0, 0x33, 0xbe, 0x00, 0xc3, 0x96, 0x3e,
  0xce, 0x85, 0x2c, 0x3e, 0xe0, 0x63, 0xf0, 0x3d, 0x58, 0xb4, 0x74, 0x3d,
  0xa9, 0x17, 0x54, 0xbe, 0x4f, 0xf2, 0x19, 0xbe, 0x94, 0x16, 0x18, 0x3e,
  0xdf, 0xa3, 0x58, 0xbd, 0xed, 0x93, 0x77, 0xbe, 0x00, 0xb8, 0xce, 0xbc,
  0xff, 0xf4, 0x96, 0xbd, 0x6c, 0x66, 0x01, 0xbd, 0x5a, 0x06, 0x06, 0x3f,
  0x82, 0x70, 0x3e, 0x3d, 0xa7, 0xf0, 0x1f, 0xbe, 0x18, 0xea, 0x99, 0x3b,
  0x5b, 0x97, 0x03, 0xbe, 0x3b, 0x4e, 0x9a, 0x3e, 0x7e, 0x2b, 0x82, 0x3d,
  0x3a, 0xfa, 0x9f, 0x3d, 0xa1, 0xf7, 0xfa, 0x3e, 0x85, 0x42, 0xda, 0x3e,
  0x31, 0x81, 0x51, 0xbe, 0xa0, 0xf8, 0x52, 0x3d, 0xad, 0xcd, 0x55, 0x3f,
  0x18, 0x4e, 0xdf, 0x3c, 0x40, 0xfd, 0x0e, 0x3b, 0x46, 0x50, 0x4f, 0x3e,
  0xbd, 0x15, 0x3f, 0x3e, 0xf3, 0xca, 0x4c, 0xbe, 0xf9, 0x01, 0x4a, 0x3e,
  0xdf, 0x82, 0xb5, 0x3e, 0x8b, 0x14, 0xe3, 0x3e, 0xee, 0x79, 0x29, 0x3e,
  0x11, 0xce, 0xe7, 0x3e, 0xf8, 0x05, 0xbc, 0x3e, 0x88, 0xac, 0x82, 0x3f,
  0xdd, 0x27, 0x30, 0x3e, 0x3f, 0x9e, 0xe4, 0xbd, 0xbc, 0xba, 0x50, 0x3e,
  0x83, 0x96, 0x0d, 0x3e, 0x1f, 0x5c, 0xf2, 0x3d, 0x79, 0x8a, 0xd8, 0x3e,
  0xc5, 0x26, 0xf2, 0x3e, 0x3f, 0x89, 0x53, 0xbe, 0x21, 0x47, 0x06, 0x3e,
  0x8a, 0x4e, 0x03, 0xbe, 0xa0, 0x88, 0x88, 0xbc, 0xd2, 0xcf, 0x3e, 0x3e,
  0x98, 0x8a, 0xe2, 0x3d, 0xfe, 0x9a, 0x84, 0xbd, 0xd4, 0xc8, 0xf6, 0x3d,
  0xeb, 0x26, 0x71, 0xbe, 0x04, 0x69, 0x23, 0x3e, 0xd0, 0xd1, 0x26, 0x3e,
  0x54, 0x49, 0x3a, 0xbd, 0x2a, 0xa3, 0x59, 0xbb, 0x50, 0x30, 0x44, 0xbd,
  0xa7, 0x9b, 0x28, 0xbe, 0x3e, 0x17, 0x04, 0xbe, 0x33, 0x4e, 0xf2, 0xbc,
  0x3d, 0x01, 0x2b, 0xbe, 0x7a, 0xef, 0x28, 0xbe, 0x01, 0xe4, 0x56, 0xbc,
  0xda, 0x05, 0x2d, 0xbe, 0x05, 0x65, 0xe3, 0xbd, 0x30, 0x2f, 0x1e, 0xbd,
  0xff, 0xe1, 0x13, 0xbe, 0xb9, 0xe7, 0x14, 0x3e, 0xf0, 0x47, 0xe5, 0xbd,
  0x43, 0x72, 0xe8, 0xbd, 0xa4, 0xbd, 0x5e, 0xbd, 0xea, 0x8a, 0x57, 0xbe,
  0x24, 0x5c, 0xd7, 0x3d, 0x7c, 0x97, 0x33, 0x3e, 0x91, 0x17, 0xf1, 0xbd,
  0x6d, 0x5e, 0xe1, 0xbd, 0x16, 0x13, 0x43, 0x3e, 0x27, 0xe1, 0x43, 0xbe,
  0xd8, 0x23, 0x57, 0x3c, 0xc2, 0xcd, 0x49, 0xbe, 0x44, 0x0a, 0x3a, 0xbe,
  0x35, 0xa5, 0x31, 0xbd, 0xc2, 0xcd, 0x24, 0xbe, 0xdb, 0xbb, 0x8c, 0x3d,
  0xa9, 0x58, 0xdf, 0xbd, 0x40, 0xce, 0x03, 0x3b, 0x1d, 0xa0, 0x0c, 0xbe,
  0xb4, 0x5e, 0x3b, 0x3d, 0x32, 0xda, 0x12, 0x3e, 0x5e, 0x66, 0x9b, 0xbd,
  0xdc, 0x4f, 0x2b, 0xbe, 0x53, 0x24, 0x97, 0x3d, 0x46, 0x48, 0xdd, 0x3e,
  0x9b, 0x5e, 0x5b, 0x3d, 0xb8, 0xa5, 0xac, 0x3d, 0x6f, 0x30, 0x35, 0x3f,
  0xf0, 0xc4, 0xd1, 0x3d, 0xd4, 0x73, 0x94, 0x3d, 0x34, 0x1f, 0xcc, 0x3d,
  0x73, 0x72, 0xca, 0x3e, 0xb0, 0x1d, 0xed, 0x3c, 0x74, 0x17, 0xf2, 0x3e,
  0xa6, 0x97, 0xc6, 0x3e, 0x31, 0x3d, 0x53, 0x3e, 0x1c, 0xb8, 0xba, 0xbd,
  0x01, 0x1d, 0xa2, 0x3e, 0xaa, 0xf0, 0xe6, 0x3e, 0x35, 0x7f, 0x33, 0x3f,
  0xd3, 0x35, 0x58, 0x3e, 0x60, 0x8d, 0x2e, 0xbd, 0x0a, 0xc1, 0x24, 0xbc,
  0xf4, 0x6b, 0x93, 0x3e, 0xb4, 0x7d, 0x96, 0x3e, 0x8a, 0x3e, 0xc3, 0x3e,
  0x10, 0x4f, 0x9c, 0x3e, 0xcd, 0xe2, 0x9e, 0x3f, 0xca, 0x97, 0x48, 0xbe,
  0x00, 0x04, 0x9a, 0xbd, 0x50, 0xfa, 0xb0, 0x3c, 0x89, 0xc6, 0x20, 0x3f,
  0xaa, 0x23, 0x37, 0xbe, 0x96, 0x0b, 0x0d, 0x3e, 0x14, 0x2e, 0x8e, 0x3d,
  0xf7, 0x24, 0x48, 0xbe, 0xc0, 0x7e, 0x46, 0x3c, 0x5d, 0xea, 0xfd, 0x3d,
  0xcd, 0x58, 0xf0, 0x3d, 0x16, 0xd7, 0x21, 0x3e, 0xf8, 0x4b, 0xa5, 0xbd,
  0x8b, 0x7f, 0xc1, 0x3d, 0x73, 0x2e, 0x30, 0xbe, 0x16, 0x4b, 0x9b, 0x3f,
  0x4c, 0xac, 0x23, 0xbe, 0x88, 0x34, 0x1f, 0xbd, 0x18, 0x99, 0x5c, 0x3e,
  0xfa, 0x58, 0xc7, 0x3d, 0xef, 0xef, 0x09, 0x3e, 0xae, 0x57, 0x90, 0xbd,
  0xcf, 0x23, 0x6a, 0xbd, 0x6b, 0x49, 0xa7, 0x3f, 0x02, 0x83, 0x16, 0x3e,
  0x40, 0x7c, 0x19, 0x3e, 0xa0, 0x7b, 0x10, 0x3e, 0xaa, 0xd8, 0xf4, 0x3e,
  0xd7, 0x8d, 0xe5, 0xbd, 0x94, 0x10, 0x19, 0x3e, 0x80, 0x87, 0x7d, 0xbd,
  0x84, 0x4c, 0x3d, 0x3e, 0xc8, 0x1a, 0x61, 0xbd, 0xc4, 0xb3, 0x8e, 0x3e,
  0xc1, 0x57, 0x3a, 0x3e, 0x7d, 0x8f, 0x80, 0x3e, 0x38, 0xb9, 0x06, 0xbe,
  0x36, 0xc9, 0xbb, 0x3e, 0x1e, 0x4a, 0xcc, 0x3d, 0x4d, 0x61, 0xab, 0x3e,
  0xdc, 0xb4, 0xf5, 0x3d, 0x24, 0x00, 0x0d, 0x3e, 0xa5, 0x56, 0x4b, 0x3f,
  0x30, 0xd3, 0xe3, 0x3d, 0xde, 0xc3, 0x09, 0x3f, 0xa4, 0x4a, 0xe6, 0x3e,
  0xc9, 0x8c, 0x9c, 0x3e, 0x0c, 0x22, 0x1a, 0x3f, 0x04, 0x9c, 0x49, 0xbe,
  0xbf, 0x86, 0xe1, 0x3d, 0x3e, 0x0d, 0x05, 0x3e, 0x38, 0x17, 0x0f, 0x3f,
  0xd0, 0x1c, 0x1a, 0xbc, 0x4a, 0x6a, 0x18, 0x3e, 0x48, 0xfc, 0x63, 0x3d,
  0x8c, 0x68, 0x13, 0x3b, 0x00, 0xc2, 0x22, 0x3a, 0x62, 0x29, 0xd2, 0xbd,
  0xd4, 0xb5, 0x26, 0xbe, 0x8c, 0xea, 0x26, 0x3e, 0x98, 0x19, 0x84, 0xbc,
  0xea, 0xaf, 0x1c, 0x3e, 0x91, 0xb3, 0x02, 0x3e, 0xbe, 0x75, 0xbc, 0x3e,
  0xb7, 0x89, 0x85, 0xbc, 0xac, 0xdc, 0x55, 0xbd, 0x3e, 0xc9, 0xa9, 0xbc,
  0xa9, 0x74, 0xd8, 0x3d, 0xa4, 0x03, 0xcb, 0x3e, 0xf3, 0x99, 0x20, 0xbe,
  0x0b, 0x97, 0x0b, 0xbe, 0x39, 0xb2, 0x05, 0x3e, 0x86, 0x00, 0x65, 0xbe,
  0xaf, 0x9e, 0x2f, 0x3e, 0xc4, 0x28, 0x01, 0xbe, 0x32, 0xbb, 0x5e, 0x3e,
  0x00, 0x64, 0x91, 0xb9, 0x68, 0x08, 0x0f, 0x3d, 0xf0, 0xab, 0x43, 0xbc,
  0xd5, 0xd2, 0xfa, 0x3c, 0xb0, 0xa5, 0xe5, 0x3c, 0x6d, 0x5e, 0xc6, 0x3d,
  0xdc, 0xf9, 0x31, 0xbc, 0xdc, 0x89, 0x63, 0xbd, 0xa0, 0xf3, 0xec, 0x3c,
  0x2f, 0x1c, 0x9d, 0x3d, 0x0d, 0x4d, 0xfb, 0xbc, 0x8e, 0x23, 0xfc, 0x3e,
  0xee, 0x06, 0xae, 0xbd, 0x00, 0xfc, 0xe7, 0x3a, 0x65, 0x04, 0x66, 0x3e,
  0x4c, 0xf5, 0x67, 0xbe, 0xd8, 0xe4, 0x5c, 0x3e, 0x62, 0xb5, 0xfa, 0x3d,
  0x90, 0x07, 0x1a, 0xbe, 0x58, 0x39, 0x1a, 0xbd, 0xe0, 0x7d, 0x49, 0xbc,
  0x60, 0xb9, 0x89, 0x3d, 0xcc, 0x01, 0x9e, 0x3d, 0x78, 0x68, 0x3d, 0x3d,
  0x9c, 0xe8, 0xa4, 0x3d, 0x89, 0x5d, 0xb3, 0xbd, 0x30, 0xe0, 0xaf, 0x3d,
  0x16, 0x8e, 0x84, 0xbd, 0x3c, 0x56, 0x03, 0x3e, 0x98, 0x61, 0x75, 0xbd,
  0x2e, 0xfc, 0x31, 0xbe, 0x90, 0xd8, 0x6e, 0x3c, 0x94, 0x87, 0xd9, 0x3d,
  0x90, 0x12, 0x03, 0xbc, 0xc0, 0xa5, 0x2d, 0x3b, 0x00, 0x9b, 0x3d, 0x3a,
  0x04, 0xdf, 0xdd, 0x3d, 0xe0, 0xd6, 0x82, 0x3c, 0x80, 0xba, 0x3a, 0xbe,
  0x63, 0x11, 0x15, 0xbe, 0xd0, 0xaf, 0x45, 0x3c, 0xc0, 0x45, 0x86, 0xbc,
  0xdc, 0xcb, 0x47, 0x3e, 0x49, 0x28, 0xa1, 0x3e, 0xfe, 0x94, 0x0c, 0x3e,
  0xad, 0x2f, 0x2f, 0xbe, 0x9c, 0xa8, 0x46, 0xbe, 0x22, 0x71, 0xbd, 0x3e,
  0x4c, 0x59, 0x04, 0xbe, 0x18, 0xd3, 0x73, 0xbd, 0x50, 0x5a, 0xbc, 0x3c,
  0x64, 0xa4, 0x68, 0xbe, 0x80, 0xa2, 0x0f, 0x3e, 0x55, 0xa4, 0x14, 0xbe,
  0xa0, 0x65, 0x06, 0x3e, 0x1c, 0x7a, 0x38, 0x3d, 0xd8, 0xcc, 0x1c, 0xbd,
  0x15, 0x5d, 0x57, 0xbe, 0xca, 0x82, 0xcb, 0xbb, 0x78, 0xfc, 0xb9, 0x3e,
  0xec, 0x30, 0x07, 0x3e, 0x48, 0xd7, 0x2f, 0xbe, 0x8b, 0x26, 0xfe, 0x3c,
  0xb4, 0x5f, 0xf7, 0xbd, 0x2c, 0xe9, 0x6a, 0x3d, 0x0c, 0x69, 0x18, 0xbe,
  0x07, 0x8f, 0x2d, 0xbd, 0x05, 0xce, 0xa1, 0x3f, 0xbb, 0xca, 0x5c, 0xbd,
  0x88, 0x8d, 0x9b, 0x3d, 0x29, 0xc1, 0xaa, 0xbd, 0x31, 0xb0, 0x8d, 0x3f,
  0xe4, 0x29, 0x30, 0xbd, 0xb0, 0xf9, 0x44, 0x3e, 0xa0, 0x4b, 0xcc, 0xbc,
  0x37, 0x55, 0x94, 0xbe, 0x0c, 0x03, 0x24, 0x3e, 0xb7, 0xe0, 0x6e, 0x3a,
  0xb7, 0x5e, 0x31, 0xbd, 0x5d, 0xfe, 0x9c, 0xbd, 0xae, 0xd5, 0x11, 0x3e,
  0x85, 0x2a, 0x1c, 0xbe, 0xdb, 0x78, 0x9e, 0x3d, 0x25, 0x2a, 0x55, 0x3f,
  0x6f, 0x84, 0x03, 0xbe, 0xc8, 0xeb, 0x03, 0x3e, 0x08, 0x81, 0xc2, 0x3e,
  0x6f, 0x80, 0xc6, 0x3d, 0x08, 0x2f, 0x3f, 0x3f, 0x54, 0x92, 0x59, 0xbe,
  0x1f, 0xe0, 0x2c, 0xbe, 0xc3, 0x05, 0x2f, 0xbe, 0xfd, 0x5d, 0x1f, 0xbd,
  0x87, 0x4f, 0x27, 0x3e, 0xf2, 0xc7, 0x4a, 0x3e, 0xb3, 0x84, 0xed, 0x3d,
  0xa0, 0x76, 0xa5, 0x3c, 0xe0, 0x33, 0x91, 0x3b, 0x06, 0x66, 0x0a, 0x3e,
  0xb0, 0xb0, 0xa6, 0x3d, 0xb0, 0xf0, 0xa5, 0xbc, 0x9e, 0xf3, 0xb4, 0xbd,
  0x5b, 0xd4, 0x1d, 0x3d, 0xbf, 0x23, 0x59, 0xbd, 0xc4, 0xd8, 0x12, 0xbe,
  0xdc, 0xfe, 0x07, 0xbe, 0x03, 0xc3, 0x02, 0x3e, 0xd1, 0xe1, 0xe1, 0x3d,
  0x5e, 0x96, 0xe3, 0xbd, 0x94, 0x6c, 0x33, 0xbd, 0x05, 0x86, 0x1f, 0xbe,
  0x64, 0x19, 0xdf, 0xbd, 0x55, 0xba, 0x20, 0x3e, 0x83, 0x3f, 0x60, 0xbe,
  0x43, 0xa9, 0x59, 0x3d, 0xe3, 0x82, 0x56, 0xbe, 0x0e, 0x78, 0x00, 0xbe,
  0x24, 0x42, 0x2a, 0xbd, 0x30, 0xbd, 0x67, 0x3c, 0x78, 0x6a, 0x34, 0x3a,
  0x48, 0x18, 0xbf, 0xbd, 0xb7, 0x76, 0xba, 0xbd, 0x37, 0x45, 0xfe, 0xbd,
  0x6e, 0x57, 0x2e, 0xbe, 0xd4, 0x39, 0x02, 0xbe, 0xc3, 0x5a, 0x2c, 0x3e,
  0x88, 0xbb, 0xfd, 0xbd, 0xf0, 0xda, 0x4a, 0xbe, 0x84, 0xa9, 0x0f, 0x3e,
  0x60, 0xe3, 0x53, 0x3d, 0x18, 0x15, 0xe7, 0x3d, 0x5d, 0xe1, 0x32, 0xbe,
  0x18, 0x1a, 0x63, 0xbe, 0x79, 0x5a, 0x14, 0xbe, 0x6a, 0x3a, 0xdc, 0xbd,
  0x1a, 0x4c, 0xe8, 0xbc, 0xee, 0x3c, 0x7a, 0x3d, 0x68, 0x3b, 0xbc, 0x3d,
  0x55, 0x67, 0x50, 0xbe, 0xb2, 0xfd, 0xff, 0xff, 0x04, 0x00, 0x00, 0x00,
  0x80, 0x01, 0x00, 0x00, 0x1c, 0xed, 0x4f, 0xbe, 0x41, 0x1b, 0xa8, 0xbe,
  0x51, 0x43, 0xe4, 0xbe, 0xcc, 0x48, 0x08, 0xbf, 0xfd, 0xdb, 0x6e, 0xbe,
  0x24, 0xe2, 0x07, 0xbf, 0xe0, 0x90, 0x84, 0xbf, 0x08, 0x7a, 0xb3, 0x3d,
  0x88, 0x48, 0xac, 0xbe, 0xc2, 0x84, 0xdf, 0xbe, 0xce, 0x0d, 0xe0, 0xbe,
  0xda, 0x27, 0x79, 0xbf, 0x34, 0x91, 0x99, 0x3d, 0x68, 0x29, 0x31, 0xbe,
  0x46, 0x50, 0x8d, 0xbf, 0x0d, 0xb8, 0x7b, 0xbf, 0xd6, 0xa0, 0x2d, 0xbf,
  0x2f, 0xeb, 0xdd, 0xbe, 0x29, 0x75, 0x6c, 0xbe, 0x7e, 0xfb, 0x26, 0x3e,
  0xbe, 0x50, 0x14, 0xbf, 0xb9, 0x65, 0x64, 0xbf, 0x21, 0x3e, 0x9a, 0xbd,
  0xb1, 0xf2, 0xf8, 0xbc, 0x6c, 0xda, 0x3e, 0xbd, 0x5c, 0x8a, 0x7a, 0xbf,
  0x4c, 0x5c, 0xc8, 0xbd, 0x64, 0xd6, 0x8a, 0x3d, 0xed, 0xda, 0x5e, 0x3d,
  0x9b, 0x80, 0xc3, 0xbc, 0x02, 0x03, 0xb8, 0x3e, 0xed, 0x94, 0x4d, 0xbe,
  0xc0, 0xc4, 0xff, 0xbc, 0xee, 0x50, 0x13, 0xbe, 0x9d, 0x0f, 0x4f, 0xbe,
  0x00, 0x01, 0x34, 0x3e, 0x3f, 0x42, 0x02, 0xbe, 0xba, 0x06, 0xe0, 0x3d,
  0x6e, 0xd3, 0xbb, 0x3e, 0xaa, 0xd3, 0x6f, 0xbe, 0x64, 0x1f, 0xc8, 0xbe,
  0xd4, 0x42, 0xd3, 0xbc, 0x41, 0x13, 0xf6, 0xbd, 0x8f, 0xed, 0x11, 0xbe,
  0x9f, 0xd0, 0xb2, 0xbd, 0x8a, 0x3f, 0x95, 0xbd, 0x55, 0x49, 0x0d, 0xbc,
  0x1d, 0x89, 0xc1, 0x3d, 0x60, 0x75, 0x47, 0xbc, 0xb5, 0x9c, 0xb8, 0xbe,
  0xfc, 0xd6, 0xc5, 0xbe, 0x7a, 0x13, 0x65, 0xbf, 0xb5, 0xb6, 0xe3, 0xbd,
  0x13, 0xd8, 0x3e, 0xbf, 0x1e, 0xd3, 0xb4, 0xbf, 0xe2, 0x05, 0xaa, 0xbd,
  0xc8, 0xd1, 0x3f, 0xbf, 0x10, 0xa7, 0x25, 0xbf, 0xa9, 0x08, 0xd9, 0xbe,
  0x04, 0xfd, 0xcd, 0xbf, 0x13, 0x3d, 0x61, 0xbc, 0xa0, 0xea, 0x07, 0xbc,
  0xad, 0x2d, 0xbf, 0xbf, 0xba, 0xcb, 0x3c, 0xbf, 0xa9, 0xb8, 0x60, 0xbf,
  0x63, 0xbb, 0xb1, 0xbe, 0x54, 0xeb, 0xe4, 0xbe, 0xe8, 0x47, 0xd5, 0x3c,
  0x39, 0x7a, 0x27, 0xbf, 0xf8, 0xed, 0x48, 0xbf, 0xea, 0x3c, 0x1d, 0x3e,
  0x15, 0x14, 0x71, 0xbd, 0x32, 0x33, 0x21, 0x3e, 0x15, 0xdc, 0x3a, 0xbf,
  0x4d, 0xad, 0x11, 0xbe, 0x18, 0x27, 0x2b, 0xbe, 0xa5, 0x7b, 0x50, 0x3d,
  0xd3, 0xbc, 0xe1, 0xbd, 0x4b, 0xd9, 0x42, 0xbe, 0xc0, 0xa0, 0x50, 0xbc,
  0xce, 0x75, 0x57, 0xbe, 0x17, 0x28, 0x7a, 0xba, 0xd9, 0x32, 0x2e, 0xbe,
  0x2f, 0xe7, 0xfb, 0x3d, 0xf8, 0x61, 0x25, 0x3e, 0xf1, 0x02, 0xc2, 0xbd,
  0xa9, 0x18, 0x5f, 0x3d, 0x12, 0x21, 0x82, 0xbf, 0x52, 0x38, 0x84, 0xbe,
  0xed, 0xa3, 0x89, 0xbe, 0x02, 0xca, 0x12, 0xbe, 0xd8, 0x06, 0x7e, 0x3d,
  0xf6, 0x03, 0x2a, 0xbe, 0xda, 0xfb, 0x1d, 0xbf, 0xcd, 0x1b, 0xb4, 0x3d,
  0x3b, 0x6a, 0x68, 0x3d, 0xa4, 0xf8, 0xff, 0xff, 0xa8, 0xf8, 0xff, 0xff,
  0x0f, 0x00, 0x00, 0x00, 0x4d, 0x4c, 0x49, 0x52, 0x20, 0x43, 0x6f, 0x6e,
  0x76, 0x65, 0x72, 0x74, 0x65, 0x64, 0x2e, 0x00, 0x01, 0x00, 0x00, 0x00,
  0x14, 0x00, 0x00, 0x00, 0x00, 0x00, 0x0e, 0x00, 0x18, 0x00, 0x14, 0x00,
  0x10, 0x00, 0x0c, 0x00, 0x08, 0x00, 0x04, 0x00, 0x0e, 0x00, 0x00, 0x00,
  0x14, 0x00, 0x00, 0x00, 0x1c, 0x00, 0x00, 0x00, 0x88, 0x01, 0x00, 0x00,
  0x8c, 0x01, 0x00, 0x00, 0x90, 0x01, 0x00, 0x00, 0x04, 0x00, 0x00, 0x00,
  0x6d, 0x61, 0x69, 0x6e, 0x00, 0x00, 0x00, 0x00, 0x06, 0x00, 0x00, 0x00,
  0x4c, 0x01, 0x00, 0x00, 0xfc, 0x00, 0x00, 0x00, 0xb0, 0x00, 0x00, 0x00,
  0x88, 0x00, 0x00, 0x00, 0x3c, 0x00, 0x00, 0x00, 0x04, 0x00, 0x00, 0x00,
  0x26, 0xff, 0xff, 0xff, 0x14, 0x00, 0x00, 0x00, 0x00, 0x00, 0x00, 0x08,
  0x10, 0x00, 0x00, 0x00, 0x14, 0x00, 0x00, 0x00, 0x01, 0x00, 0x00, 0x00,
  0x30, 0xf9, 0xff, 0xff, 0x01, 0x00, 0x00, 0x00, 0x0f, 0x00, 0x00, 0x00,
  0x03, 0x00, 0x00, 0x00, 0x0e, 0x00, 0x00, 0x00, 0x01, 0x00, 0x00, 0x00,
  0x05, 0x00, 0x00, 0x00, 0x5a, 0xff, 0xff, 0xff, 0x1c, 0x00, 0x00, 0x00,
  0x00, 0x00, 0x00, 0x17, 0x1c, 0x00, 0x00, 0x00, 0x20, 0x00, 0x00, 0x00,
  0x03, 0x00, 0x00, 0x00, 0x00, 0x00, 0x06, 0x00, 0x08, 0x00, 0x04, 0x00,
  0x06, 0x00, 0x00, 0x00, 0x01, 0x00, 0x00, 0x00, 0x01, 0x00, 0x00, 0x00,
  0x0e, 0x00, 0x00, 0x00, 0x02, 0x00, 0x00, 0x00, 0x0d, 0x00, 0x00, 0x00,
  0x08, 0x00, 0x00, 0x00, 0x00, 0x00, 0x0a, 0x00, 0x10, 0x00, 0x0c, 0x00,
  0x08, 0x00, 0x04, 0x00, 0x0a, 0x00, 0x00, 0x00, 0x0c, 0x00, 0x00, 0x00,
  0x10, 0x00, 0x00, 0x00, 0x02, 0x00, 0x00, 0x00, 0x01, 0x00, 0x00, 0x00,
  0x0d, 0x00, 0x00, 0x00, 0x02, 0x00, 0x00, 0x00, 0x0c, 0x00, 0x00, 0x00,
  0x04, 0x00, 0x00, 0x00, 0xc6, 0xff, 0xff, 0xff, 0x14, 0x00, 0x00, 0x00,
  0x00, 0x00, 0x00, 0x08, 0x14, 0x00, 0x00, 0x00, 0x18, 0x00, 0x00, 0x00,
  0x01, 0x00, 0x00, 0x00, 0xb6, 0xff, 0xff, 0xff, 0x00, 0x00, 0x00, 0x01,
  0x01, 0x00, 0x00, 0x00, 0x0c, 0x00, 0x00, 0x00, 0x03, 0x00, 0x00, 0x00,
  0x0b, 0x00, 0x00, 0x00, 0x02, 0x00, 0x00, 0x00, 0x07, 0x00, 0x00, 0x00,
  0x00, 0x00, 0x0e, 0x00, 0x1a, 0x00, 0x14, 0x00, 0x10, 0x00, 0x0c, 0x00,
  0x0b, 0x00, 0x04, 0x00, 0x0e, 0x00, 0x00, 0x00, 0x1c, 0x00, 0x00, 0x00,
  0x00, 0x00, 0x00, 0x08, 0x1c, 0x00, 0x00, 0x00, 0x20, 0x00, 0x00, 0x00,
  0x01, 0x00, 0x00, 0x00, 0x00, 0x00, 0x06, 0x00, 0x08, 0x00, 0x07, 0x00,
  0x06, 0x00, 0x00, 0x00, 0x00, 0x00, 0x00, 0x01, 0x01, 0x00, 0x00, 0x00,
  0x0b, 0x00, 0x00, 0x00, 0x03, 0x00, 0x00, 0x00, 0x0a, 0x00, 0x00, 0x00,
  0x03, 0x00, 0x00, 0x00, 0x06, 0x00, 0x00, 0x00, 0x00, 0x00, 0x0a, 0x00,
  0x0c, 0x00, 0x00, 0x00, 0x08, 0x00, 0x04, 0x00, 0x0a, 0x00, 0x00, 0x00,
  0x08, 0x00, 0x00, 0x00, 0x0c, 0x00, 0x00, 0x00, 0x01, 0x00, 0x00, 0x00,
  0x0a, 0x00, 0x00, 0x00, 0x02, 0x00, 0x00, 0x00, 0x00, 0x00, 0x00, 0x00,
  0x09, 0x00, 0x00, 0x00, 0x01, 0x00, 0x00, 0x00, 0x0f, 0x00, 0x00, 0x00,
  0x01, 0x00, 0x00, 0x00, 0x00, 0x00, 0x00, 0x00, 0x10, 0x00, 0x00, 0x00,
  0x68, 0x05, 0x00, 0x00, 0x10, 0x05, 0x00, 0x00, 0xd0, 0x04, 0x00, 0x00,
  0x90, 0x04, 0x00, 0x00, 0x50, 0x04, 0x00, 0x00, 0xf8, 0x03, 0x00, 0x00,
  0xa4, 0x03, 0x00, 0x00, 0x50, 0x03, 0x00, 0x00, 0xf4, 0x02, 0x00, 0x00,
  0x94, 0x02, 0x00, 0x00, 0x34, 0x02, 0x00, 0x00, 0xa8, 0x01, 0x00, 0x00,
  0x14, 0x01, 0x00, 0x00, 0xc0, 0x00, 0x00, 0x00, 0x40, 0x00, 0x00, 0x00,
  0x04, 0x00, 0x00, 0x00, 0xee, 0xfa, 0xff, 0xff, 0x00, 0x00, 0x00, 0x01,
  0x10, 0x00, 0x00, 0x00, 0x10, 0x00, 0x00, 0x00, 0x10, 0x00, 0x00, 0x00,
  0x18, 0x00, 0x00, 0x00, 0xd8, 0xfa, 0xff, 0xff, 0x08, 0x00, 0x00, 0x00,
  0x49, 0x64, 0x65, 0x6e, 0x74, 0x69, 0x74, 0x79, 0x00, 0x00, 0x00, 0x00,
  0x02, 0x00, 0x00, 0x00, 0x01, 0x00, 0x00, 0x00, 0x04, 0x00, 0x00, 0x00,
  0x26, 0xfb, 0xff, 0xff, 0x00, 0x00, 0x00, 0x01, 0x10, 0x00, 0x00, 0x00,
  0x10, 0x00, 0x00, 0x00, 0x0f, 0x00, 0x00, 0x00, 0x5c, 0x00, 0x00, 0x00,
  0x10, 0xfb, 0xff, 0xff, 0x4e, 0x00, 0x00, 0x00, 0x6d, 0x6f, 0x64, 0x65,
  0x6c, 0x5f, 0x32, 0x2f, 0x74, 0x66, 0x2e, 0x63, 0x6f, 0x6d, 0x70, 0x61,
  0x74, 0x2e, 0x76, 0x31, 0x2e, 0x67, 0x61, 0x74, 0x68, 0x65, 0x72, 0x2f,
  0x47, 0x61, 0x74, 0x68, 0x65, 0x72, 0x56, 0x32, 0x3b, 0x6d, 0x6f, 0x64,
  0x65, 0x6c, 0x5f, 0x32, 0x2f, 0x74, 0x66, 0x2e, 0x63, 0x6f, 0x6d, 0x70,
  0x61, 0x74, 0x2e, 0x76, 0x31, 0x2e, 0x67, 0x61, 0x74, 0x68, 0x65, 0x72,
  0x2f, 0x47, 0x61, 0x74, 0x68, 0x65, 0x72, 0x56, 0x32, 0x2f, 0x61, 0x78,
  0x69, 0x73, 0x00, 0x00, 0x02, 0x00, 0x00, 0x00, 0x01, 0x00, 0x00, 0x00,
  0x18, 0x00, 0x00, 0x00, 0xa2, 0xfb, 0xff, 0xff, 0x00, 0x00, 0x00, 0x01,
  0x10, 0x00, 0x00, 0x00, 0x10, 0x00, 0x00, 0x00, 0x0e, 0x00, 0x00, 0x00,
  0x2c, 0x00, 0x00, 0x00, 0x8c, 0xfb, 0xff, 0xff, 0x1c, 0x00, 0x00, 0x00,
  0x6d, 0x6f, 0x64, 0x65, 0x6c, 0x5f, 0x32, 0x2f, 0x74, 0x66, 0x2e, 0x72,
  0x65, 0x73, 0x68, 0x61, 0x70, 0x65, 0x5f, 0x33, 0x2f, 0x52, 0x65, 0x73,
  0x68, 0x61, 0x70, 0x65, 0x00, 0x00, 0x00, 0x00, 0x03, 0x00, 0x00, 0x00,
  0x01, 0x00, 0x00, 0x00, 0x0a, 0x00, 0x00, 0x00, 0x18, 0x00, 0x00, 0x00,
  0xf2, 0xfb, 0xff, 0xff, 0x00, 0x00, 0x00, 0x01, 0x10, 0x00, 0x00, 0x00,
  0x10, 0x00, 0x00, 0x00, 0x0d, 0x00, 0x00, 0x00, 0x70, 0x00, 0x00, 0x00,
  0xdc, 0xfb, 0xff, 0xff, 0x60, 0x00, 0x00, 0x00, 0x6d, 0x6f, 0x64, 0x65,
  0x6c, 0x5f, 0x32, 0x2f, 0x74, 0x66, 0x2e, 0x6c, 0x69, 0x6e, 0x61, 0x6c,
  0x67, 0x2e, 0x6d, 0x61, 0x74, 0x6d, 0x75, 0x6c, 0x5f, 0x31, 0x2f, 0x4d,
  0x61, 0x74, 0x4d, 0x75, 0x6c, 0x3b, 0x6d, 0x6f, 0x64, 0x65, 0x6c, 0x5f,
  0x32, 0x2f, 0x74, 0x66, 0x2e, 0x6e, 0x6e, 0x2e, 0x72, 0x65, 0x6c, 0x75,
  0x5f, 0x31, 0x2f, 0x52, 0x65, 0x6c, 0x75, 0x3b, 0x6d, 0x6f, 0x64, 0x65,
  0x6c, 0x5f, 0x32, 0x2f, 0x74, 0x66, 0x2e, 0x5f, 0x5f, 0x6f, 0x70, 0x65,
  0x72, 0x61, 0x74, 0x6f, 0x72, 0x73, 0x5f, 0x5f, 0x2e, 0x61, 0x64, 0x64,
  0x5f, 0x31, 0x2f, 0x41, 0x64, 0x64, 0x56, 0x32, 0x00, 0x00, 0x00, 0x00,
  0x02, 0x00, 0x00, 0x00, 0x0a, 0x00, 0x00, 0x00, 0x18, 0x00, 0x00, 0x00,
  0x82, 0xfc, 0xff, 0xff, 0x00, 0x00, 0x00, 0x01, 0x10, 0x00, 0x00, 0x00,
  0x10, 0x00, 0x00, 0x00, 0x0c, 0x00, 0x00, 0x00, 0x68, 0x00, 0x00, 0x00,
  0x6c, 0xfc, 0xff, 0xff, 0x5a, 0x00, 0x00, 0x00, 0x6d, 0x6f, 0x64, 0x65,
  0x6c, 0x5f, 0x32, 0x2f, 0x74, 0x66, 0x2e, 0x6c, 0x69, 0x6e, 0x61, 0x6c,
  0x67, 0x2e, 0x6d, 0x61, 0x74, 0x6d, 0x75, 0x6c, 0x2f, 0x4d, 0x61, 0x74,
  0x4d, 0x75, 0x6c, 0x3b, 0x6d, 0x6f, 0x64, 0x65, 0x6c, 0x5f, 0x32, 0x2f,
  0x74, 0x66, 0x2e, 0x6e, 0x6e, 0x2e, 0x72, 0x65, 0x6c, 0x75, 0x2f, 0x52,
  0x65, 0x6c, 0x75, 0x3b, 0x6d, 0x6f, 0x64, 0x65, 0x6c, 0x5f, 0x32, 0x2f,
  0x74, 0x66, 0x2e, 0x5f, 0x5f, 0x6f, 0x70, 0x65, 0x72, 0x61, 0x74, 0x6f,
  0x72, 0x73, 0x5f, 0x5f, 0x2e, 0x61, 0x64, 0x64, 0x2f, 0x41, 0x64, 0x64,
  0x56, 0x32, 0x00, 0x00, 0x02, 0x00, 0x00, 0x00, 0x0a, 0x00, 0x00, 0x00,
  0x18, 0x00, 0x00, 0x00, 0x0a, 0xfd, 0xff, 0xff, 0x00, 0x00, 0x00, 0x01,
  0x10, 0x00, 0x00, 0x00, 0x10, 0x00, 0x00, 0x00, 0x0b, 0x00, 0x00, 0x00,
  0x38, 0x00, 0x00, 0x00, 0xf4, 0xfc, 0xff, 0xff, 0x2a, 0x00, 0x00, 0x00,
  0x6d, 0x6f, 0x64, 0x65, 0x6c, 0x5f, 0x32, 0x2f, 0x74, 0x66, 0x2e, 0x63,
  0x6f, 0x6d, 0x70, 0x61, 0x74, 0x2e, 0x76, 0x31, 0x2e, 0x74, 0x72, 0x61,
  0x6e, 0x73, 0x70, 0x6f, 0x73, 0x65, 0x5f, 0x32, 0x2f, 0x74, 0x72, 0x61,
  0x6e, 0x73, 0x70, 0x6f, 0x73, 0x65, 0x00, 0x00, 0x03, 0x00, 0x00, 0x00,
  0x01, 0x00, 0x00, 0x00, 0x0a, 0x00, 0x00, 0x00, 0x02, 0x00, 0x00, 0x00,
  0x6e, 0xfe, 0xff, 0xff, 0x00, 0x00, 0x00, 0x01, 0x14, 0x00, 0x00, 0x00,
  0x14, 0x00, 0x00, 0x00, 0x0a, 0x00, 0x00, 0x00, 0x00, 0x00, 0x00, 0x02,
  0x3c, 0x00, 0x00, 0x00, 0x54, 0xfd, 0xff, 0xff, 0x2f, 0x00, 0x00, 0x00,
  0x6d, 0x6f, 0x64, 0x65, 0x6c, 0x5f, 0x32, 0x2f, 0x74, 0x66, 0x2e, 0x63,
  0x6f, 0x6d, 0x70, 0x61, 0x74, 0x2e, 0x76, 0x31, 0x2e, 0x74, 0x72, 0x61,
  0x6e, 0x73, 0x70, 0x6f, 0x73, 0x65, 0x5f, 0x32, 0x2f, 0x74, 0x72, 0x61,
  0x6e, 0x73, 0x70, 0x6f, 0x73, 0x65, 0x2f, 0x70, 0x65, 0x72, 0x6d, 0x00,
  0x01, 0x00, 0x00, 0x00, 0x03, 0x00, 0x00, 0x00, 0xca, 0xfe, 0xff, 0xff,
  0x00, 0x00, 0x00, 0x01, 0x14, 0x00, 0x00, 0x00, 0x14, 0x00, 0x00, 0x00,
  0x09, 0x00, 0x00, 0x00, 0x00, 0x00, 0x00, 0x02, 0x3c, 0x00, 0x00, 0x00,
  0xb0, 0xfd, 0xff, 0xff, 0x2c, 0x00, 0x00, 0x00, 0x6d, 0x6f, 0x64, 0x65,
  0x6c, 0x5f, 0x32, 0x2f, 0x74, 0x66, 0x2e, 0x63, 0x6f, 0x6d, 0x70, 0x61,
  0x74, 0x2e, 0x76, 0x31, 0x2e, 0x67, 0x61, 0x74, 0x68, 0x65, 0x72, 0x2f,
  0x47, 0x61, 0x74, 0x68, 0x65, 0x72, 0x56, 0x32, 0x2f, 0x69, 0x6e, 0x64,
  0x69, 0x63, 0x65, 0x73, 0x00, 0x00, 0x00, 0x00, 0x00, 0x00, 0x00, 0x00,
  0x1a, 0xfe, 0xff, 0xff, 0x00, 0x00, 0x00, 0x01, 0x10, 0x00, 0x00, 0x00,
  0x10, 0x00, 0x00, 0x00, 0x08, 0x00, 0x00, 0x00, 0x34, 0x00, 0x00, 0x00,
  0x04, 0xfe, 0xff, 0xff, 0x26, 0x00, 0x00, 0x00, 0x6d, 0x6f, 0x64, 0x65,
  0x6c, 0x5f, 0x32, 0x2f, 0x74, 0x66, 0x2e, 0x5f, 0x5f, 0x6f, 0x70, 0x65,
  0x72, 0x61, 0x74, 0x6f, 0x72, 0x73, 0x5f, 0x5f, 0x2e, 0x61, 0x64, 0x64,
  0x5f, 0x31, 0x2f, 0x41, 0x64, 0x64, 0x56, 0x32, 0x2f, 0x79, 0x00, 0x00,
  0x01, 0x00, 0x00, 0x00, 0x18, 0x00, 0x00, 0x00, 0x6a, 0xfe, 0xff, 0xff,
  0x00, 0x00, 0x00, 0x01, 0x10, 0x00, 0x00, 0x00, 0x10, 0x00, 0x00, 0x00,
  0x07, 0x00, 0x00, 0x00, 0x34, 0x00, 0x00, 0x00, 0x54, 0xfe, 0xff, 0xff,
  0x24, 0x00, 0x00, 0x00, 0x6d, 0x6f, 0x64, 0x65, 0x6c, 0x5f, 0x32, 0x2f,
  0x74, 0x66, 0x2e, 0x5f, 0x5f, 0x6f, 0x70, 0x65, 0x72, 0x61, 0x74, 0x6f,
  0x72, 0x73, 0x5f, 0x5f, 0x2e, 0x61, 0x64, 0x64, 0x2f, 0x41, 0x64, 0x64,
  0x56, 0x32, 0x2f, 0x79, 0x00, 0x00, 0x00, 0x00, 0x01, 0x00, 0x00, 0x00,
  0x18, 0x00, 0x00, 0x00, 0xba, 0xfe, 0xff, 0xff, 0x00, 0x00, 0x00, 0x01,
  0x10, 0x00, 0x00, 0x00, 0x10, 0x00, 0x00, 0x00, 0x06, 0x00, 0x00, 0x00,
  0x20, 0x00, 0x00, 0x00, 0xa4, 0xfe, 0xff, 0xff, 0x12, 0x00, 0x00, 0x00,
  0x6d, 0x6f, 0x64, 0x65, 0x6c, 0x5f, 0x32, 0x2f, 0x33, 0x31, 0x2f, 0x41,
  0x64, 0x64, 0x56, 0x32, 0x2f, 0x79, 0x00, 0x00, 0x01, 0x00, 0x00, 0x00,
  0x04, 0x00, 0x00, 0x00, 0x00, 0x00, 0x16, 0x00, 0x1c, 0x00, 0x18, 0x00,
  0x17, 0x00, 0x10, 0x00, 0x0c, 0x00, 0x08, 0x00, 0x00, 0x00, 0x00, 0x00,
  0x00, 0x00, 0x07, 0x00, 0x16, 0x00, 0x00, 0x00, 0x00, 0x00, 0x00, 0x01,
  0x14, 0x00, 0x00, 0x00, 0x14, 0x00, 0x00, 0x00, 0x05, 0x00, 0x00, 0x00,
  0x00, 0x00, 0x00, 0x02, 0x1c, 0x00, 0x00, 0x00, 0xfc, 0xfe, 0xff, 0xff,
  0x0f, 0x00, 0x00, 0x00, 0x61, 0x72, 0x69, 0x74, 0x68, 0x2e, 0x63, 0x6f,
  0x6e, 0x73, 0x74, 0x61, 0x6e, 0x74, 0x33, 0x00, 0x01, 0x00, 0x00, 0x00,
  0x03, 0x00, 0x00, 0x00, 0x4a, 0xff, 0xff, 0xff, 0x00, 0x00, 0x00, 0x01,
  0x10, 0x00, 0x00, 0x00, 0x10, 0x00, 0x00, 0x00, 0x04, 0x00, 0x00, 0x00,
  0x1c, 0x00, 0x00, 0x00, 0x34, 0xff, 0xff, 0xff, 0x0f, 0x00, 0x00, 0x00,
  0x61, 0x72, 0x69, 0x74, 0x68, 0x2e, 0x63, 0x6f, 0x6e, 0x73, 0x74, 0x61,
  0x6e, 0x74, 0x32, 0x00, 0x02, 0x00, 0x00, 0x00, 0x18, 0x00, 0x00, 0x00,
  0x02, 0x00, 0x00, 0x00, 0x86, 0xff, 0xff, 0xff, 0x00, 0x00, 0x00, 0x01,
  0x10, 0x00, 0x00, 0x00, 0x10, 0x00, 0x00, 0x00, 0x03, 0x00, 0x00, 0x00,
  0x1c, 0x00, 0x00, 0x00, 0x70, 0xff, 0xff, 0xff, 0x0f, 0x00, 0x00, 0x00,
  0x61, 0x72, 0x69, 0x74, 0x68, 0x2e, 0x63, 0x6f, 0x6e, 0x73, 0x74, 0x61,
  0x6e, 0x74, 0x31, 0x00, 0x02, 0x00, 0x00, 0x00, 0x18, 0x00, 0x00, 0x00,
  0x18, 0x00, 0x00, 0x00, 0xc2, 0xff, 0xff, 0xff, 0x00, 0x00, 0x00, 0x01,
  0x10, 0x00, 0x00, 0x00, 0x10, 0x00, 0x00, 0x00, 0x02, 0x00, 0x00, 0x00,
  0x1c, 0x00, 0x00, 0x00, 0xac, 0xff, 0xff, 0xff, 0x0e, 0x00, 0x00, 0x00,
  0x61, 0x72, 0x69, 0x74, 0x68, 0x2e, 0x63, 0x6f, 0x6e, 0x73, 0x74, 0x61,
  0x6e, 0x74, 0x00, 0x00, 0x02, 0x00, 0x00, 0x00, 0x04, 0x00, 0x00, 0x00,
  0x18, 0x00, 0x00, 0x00, 0x00, 0x00, 0x16, 0x00, 0x18, 0x00, 0x14, 0x00,
  0x00, 0x00, 0x10, 0x00, 0x0c, 0x00, 0x08, 0x00, 0x00, 0x00, 0x00, 0x00,
  0x00, 0x00, 0x07, 0x00, 0x16, 0x00, 0x00, 0x00, 0x00, 0x00, 0x00, 0x01,
  0x14, 0x00, 0x00, 0x00, 0x14, 0x00, 0x00, 0x00, 0x01, 0x00, 0x00, 0x00,
  0x18, 0x00, 0x00, 0x00, 0x04, 0x00, 0x04, 0x00, 0x04, 0x00, 0x00, 0x00,
  0x05, 0x00, 0x00, 0x00, 0x69, 0x6e, 0x70, 0x75, 0x74, 0x00, 0x00, 0x00,
  0x03, 0x00, 0x00, 0x00, 0x01, 0x00, 0x00, 0x00, 0x02, 0x00, 0x00, 0x00,
  0x0a, 0x00, 0x00, 0x00, 0x04, 0x00, 0x00, 0x00, 0x40, 0x00, 0x00, 0x00,
  0x24, 0x00, 0x00, 0x00, 0x14, 0x00, 0x00, 0x00, 0x04, 0x00, 0x00, 0x00,
  0xdc, 0xff, 0xff, 0xff, 0x24, 0x00, 0x00, 0x00, 0x00, 0x00, 0x00, 0x24,
  0xe8, 0xff, 0xff, 0xff, 0x16, 0x00, 0x00, 0x00, 0x00, 0x00, 0x00, 0x16,
  0xf4, 0xff, 0xff, 0xff, 0x09, 0x00, 0x00, 0x00, 0x00, 0x00, 0x00, 0x09,
  0x0c, 0x00, 0x0c, 0x00, 0x0b, 0x00, 0x00, 0x00, 0x00, 0x00, 0x04, 0x00,
  0x0c, 0x00, 0x00, 0x00, 0x27, 0x00, 0x00, 0x00, 0x00, 0x00, 0x00, 0x27
};