alignas(16) const unsigned char g_model[] = {
  0x1c, 0x00, 0x00, 0x00, 0x54, 0x46, 0x4c, 0x33, 0x14, 0x00, 0x20, 0x00,
  0x1c, 0x00, 0x18, 0x00, 0x14, 0x00, 0x10, 0x00, 0x0c, 0x00, 0x00, 0x00,
  0x08, 0x00, 0x04, 0x00, 0x14, 0x00, 0x00, 0x00, 0x1c, 0x00, 0x00, 0x00,
  0x1c, 0x00, 0x00, 0x00, 0x74, 0x00, 0x00, 0x00, 0x80, 0x0c, 0x00, 0x00,
  0x90, 0x0c, 0x00, 0x00, 0x8c, 0x0f, 0x00, 0x00, 0x03, 0x00, 0x00, 0x00,
  0x00, 0x00, 0x00, 0x00, 0x02, 0x00, 0x00, 0x00, 0x34, 0x00, 0x00, 0x00,
  0x04, 0x00, 0x00, 0x00, 0xdc, 0xff, 0xff, 0xff, 0x09, 0x00, 0x00, 0x00,
  0x04, 0x00, 0x00, 0x00, 0x13, 0x00, 0x00, 0x00, 0x43, 0x4f, 0x4e, 0x56,
  0x45, 0x52, 0x53, 0x49, 0x4f, 0x4e, 0x5f, 0x4d, 0x45, 0x54, 0x41, 0x44,
  0x41, 0x54, 0x41, 0x00, 0x08, 0x00, 0x0c, 0x00, 0x08, 0x00, 0x04, 0x00,
  0x08, 0x00, 0x00, 0x00, 0x08, 0x00, 0x00, 0x00, 0x04, 0x00, 0x00, 0x00,
  0x13, 0x00, 0x00, 0x00, 0x6d, 0x69, 0x6e, 0x5f, 0x72, 0x75, 0x6e, 0x74,
  0x69, 0x6d, 0x65, 0x5f, 0x76, 0x65, 0x72, 0x73, 0x69, 0x6f, 0x6e, 0x00,
  0x0a, 0x00, 0x00, 0x00, 0x08, 0x0c, 0x00, 0x00, 0x00, 0x0c, 0x00, 0x00,
  0xf0, 0x08, 0x00, 0x00, 0xd8, 0x07, 0x00, 0x00, 0xbc, 0x07, 0x00, 0x00,
  0xac, 0x00, 0x00, 0x00, 0xa4, 0x00, 0x00, 0x00, 0x9c, 0x00, 0x00, 0x00,
  0x7c, 0x00, 0x00, 0x00, 0x04, 0x00, 0x00, 0x00, 0x36, 0xf7, 0xff, 0xff,
  0x04, 0x00, 0x00, 0x00, 0x68, 0x00, 0x00, 0x00, 0x10, 0x00, 0x00, 0x00,
  0x00, 0x00, 0x00, 0x00, 0x08, 0x00, 0x0e, 0x00, 0x08, 0x00, 0x04, 0x00,
  0x08, 0x00, 0x00, 0x00, 0x14, 0x00, 0x00, 0x00, 0x2c, 0x00, 0x00, 0x00,
  0x00, 0x00, 0x0a, 0x00, 0x0c, 0x00, 0x08, 0x00, 0x00, 0x00, 0x07, 0x00,
  0x0a, 0x00, 0x00, 0x00, 0x00, 0x00, 0x00, 0x01, 0x04, 0x00, 0x00, 0x00,
  0x00, 0x00, 0x00, 0x00, 0x0c, 0x00, 0x18, 0x00, 0x14, 0x00, 0x10, 0x00,
  0x0c, 0x00, 0x04, 0x00, 0x0c, 0x00, 0x00, 0x00, 0xd4, 0xeb, 0x33, 0xf8,
  0x91, 0x53, 0x98, 0x76, 0x03, 0x00, 0x00, 0x00, 0x02, 0x00, 0x00, 0x00,
  0x04, 0x00, 0x00, 0x00, 0x06, 0x00, 0x00, 0x00, 0x32, 0x2e, 0x31, 0x38,
  0x2e, 0x30, 0x00, 0x00, 0xaa, 0xf7, 0xff, 0xff, 0x04, 0x00, 0x00, 0x00,
  0x10, 0x00, 0x00, 0x00, 0x31, 0x2e, 0x35, 0x2e, 0x30, 0x00, 0x00, 0x00,
  0x00, 0x00, 0x00, 0x00, 0x00, 0x00, 0x00, 0x00, 0xb8, 0xf1, 0xff, 0xff,
  0xbc, 0xf1, 0xff, 0xff, 0xce, 0xf7, 0xff, 0xff, 0x04, 0x00, 0x00, 0x00,
  0x00, 0x07, 0x00, 0x00, 0x84, 0x42, 0xac, 0xbe, 0xff, 0x48, 0x68, 0x3e,
  0xa5, 0x4f, 0xd1, 0x3d, 0xe2, 0x2e, 0x7d, 0xbe, 0xc6, 0x82, 0x32, 0xbe,
  0x16, 0xab, 0x8e, 0x3c, 0x7f, 0x68, 0x58, 0xbe, 0x3d, 0xc5, 0x37, 0xbb,
  0x84, 0x70, 0x5c, 0x3e, 0x9f, 0xbe, 0x24, 0xbe, 0xef, 0xa0, 0x74, 0xbc,
  0x5b, 0xfb, 0xad, 0x3d, 0x74, 0xa1, 0xa2, 0xbe, 0x4b, 0x87, 0xb3, 0xbe,
  0x26, 0xd8, 0x57, 0xbe, 0x31, 0x24, 0x7d, 0x3e, 0xcf, 0x70, 0x2b, 0x3d,
  0x9c, 0x44, 0x33, 0xbe, 0x2b, 0x37, 0x15, 0x3d, 0x5c, 0x64, 0xb4, 0x3c,
  0xdc, 0x38, 0x25, 0x3e, 0x6a, 0xe6, 0x29, 0xbe, 0x13, 0xe0, 0x8b, 0x3e,
  0x89, 0x36, 0xdc, 0xbd, 0xc7, 0x73, 0x5b, 0xbe, 0xd5, 0xcd, 0x90, 0xbd,
  0xb0, 0x95, 0x85, 0x3e, 0x75, 0xac, 0xae, 0xbd, 0x32, 0x0c, 0xb6, 0x3e,
  0x94, 0x4e, 0x8a, 0xbb, 0xb1, 0x5e, 0xa4, 0x3d, 0xcd, 0x26, 0x46, 0xbd,
  0xb1, 0xef, 0x95, 0x3e, 0xa0, 0xa4, 0x3e, 0xbe, 0x97, 0xad, 0xc3, 0x3d,
  0x49, 0x53, 0x69, 0x3d, 0xc0, 0xdb, 0x30, 0xbe, 0x9c, 0xd0, 0x03, 0xbe,
  0xe6, 0x42, 0xc0, 0x3e, 0xe0, 0xec, 0xb2, 0xbd, 0x09, 0xda, 0x96, 0xbe,
  0xc4, 0x7d, 0x1c, 0x3e, 0x9e, 0x9f, 0xae, 0x3e, 0x48, 0x95, 0x3b, 0x3d,
  0x60, 0x09, 0x8c, 0x3e, 0x71, 0xe7, 0x18, 0xbe, 0x61, 0xa1, 0xe4, 0x3d,
  0xc6, 0x25, 0xb8, 0xbe, 0x53, 0x8b, 0x28, 0xbe, 0x7c, 0x24, 0x3e, 0x3d,
  0xc7, 0x2c, 0xf1, 0x3d, 0xc5, 0x6f, 0xa3, 0x3d, 0x36, 0x3e, 0x72, 0x3e,
  0xf4, 0x43, 0x58, 0xbe, 0x47, 0x64, 0xa3, 0xbe, 0x59, 0x81, 0x4e, 0xbe,
  0x8c, 0xfb, 0xcd, 0xbd, 0x67, 0x77, 0xc8, 0x3d, 0x2a, 0xe7, 0x9b, 0x3e,
  0x31, 0xa8, 0x0e, 0xbe, 0xec, 0x51, 0xc0, 0x3e, 0x3e, 0x1c, 0x47, 0x3d,
  0xea, 0x42, 0xfc, 0x3d, 0x94, 0x95, 0x99, 0xbe, 0xc9, 0x07, 0x93, 0xbe,
  0x66, 0xb4, 0xfb, 0xbd, 0x07, 0x10, 0xcc, 0x3d, 0xa2, 0xd5, 0xaf, 0xbe,
  0x69, 0x10, 0xb3, 0xbe, 0xbb, 0xe6, 0x16, 0x3e, 0xd9, 0x56, 0xd0, 0xbc,
  0x97, 0x12, 0x19, 0xbe, 0x38, 0x97, 0x2e, 0x3e, 0x9a, 0x7e, 0x19, 0xbd,
  0x4c, 0x7b, 0xa2, 0xbd, 0xf1, 0x48, 0xbd, 0x3e, 0x9b, 0x3f, 0x6e, 0xbe,
  0x41, 0xc3, 0x62, 0x3e, 0x9e, 0x25, 0x1f, 0xbe, 0xa7, 0x63, 0xd4, 0x3d,
  0xfb, 0x2a, 0x31, 0xbb, 0xe2, 0x00, 0x0f, 0xbc, 0xb4, 0xbf, 0xb0, 0x3e,
  0xab, 0xa1, 0x80, 0xbe, 0xfa, 0x6d, 0xa0, 0x3e, 0x18, 0x7e, 0x81, 0x3e,
  0x54, 0x6e, 0x8f, 0x3e, 0x10, 0xde, 0xd3, 0x3c, 0x1c, 0xb5, 0x89, 0xbe,
  0x52, 0xdc, 0xab, 0xbe, 0x0c, 0x08, 0x9f, 0x3e, 0x80, 0x61, 0x80, 0x3e,
  0x8e, 0x7b, 0x37, 0x3e, 0x79, 0x4e, 0x1e, 0x3e, 0x64, 0xa0, 0xf2, 0xbe,
  0x88, 0x87, 0xa5, 0xbd, 0x30, 0x65, 0xb3, 0x3d, 0xd1, 0x33, 0x05, 0x3f,
  0x2c, 0x53, 0xa4, 0x3d, 0x20, 0x37, 0x63, 0xbe, 0xdf, 0xcf, 0xc2, 0x3e,
  0x1f, 0x85, 0xaa, 0xbe, 0xf5, 0x7a, 0xb1, 0x3e, 0xae, 0xff, 0x6f, 0xbc,
  0x75, 0x3c, 0x6b, 0xbe, 0xf3, 0xd0, 0x11, 0xbe, 0x68, 0x6f, 0x51, 0xbe,
  0x8f, 0x6d, 0x30, 0xbe, 0x2e, 0x80, 0xa7, 0xbe, 0x8f, 0x2d, 0x64, 0x3e,
  0x55, 0x2d, 0x69, 0xbe, 0x48, 0xfb, 0x75, 0xbe, 0xe2, 0xd1, 0xd0, 0xbd,
  0x62, 0xce, 0xb5, 0x3e, 0x00, 0x81, 0xd1, 0x3d, 0x61, 0x07, 0x90, 0xbe,
  0x85, 0x31, 0x57, 0xbe, 0xa3, 0xef, 0x74, 0xbe, 0xa8, 0xe7, 0x36, 0xbe,
  0x73, 0xa9, 0x75, 0x3e, 0x40, 0xb5, 0xe1, 0x3e, 0xa6, 0xe7, 0xa4, 0x3e,
  0x9e, 0x30, 0x4e, 0xbe, 0xee, 0x8b, 0x28, 0x3e, 0x78, 0xa2, 0x52, 0xbe,
  0x83, 0x93, 0xb1, 0x3e, 0x8a, 0x48, 0x9a, 0x3e, 0xae, 0xc1, 0xa0, 0xbe,
  0xe8, 0x98, 0xf3, 0x3d, 0x51, 0x00, 0x17, 0xbe, 0x26, 0x47, 0xf8, 0x3d,
  0x7a, 0x9f, 0x08, 0xbf, 0x90, 0x6c, 0xa2, 0x3e, 0x99, 0xf7, 0x96, 0x3d,
  0x0e, 0x04, 0x8a, 0x3e, 0x88, 0x51, 0x01, 0xbe, 0xe2, 0xb3, 0x37, 0xbe,
  0x76, 0xa2, 0x6b, 0xbe, 0x9e, 0x3d, 0x89, 0x3e, 0xb0, 0x2d, 0x71, 0x3e,
  0x83, 0x31, 0xa6, 0xbe, 0x4d, 0x09, 0xb4, 0x3e, 0xa0, 0x61, 0xe3, 0x3b,
  0xac, 0xfc, 0xd2, 0xbe, 0x09, 0x40, 0xa7, 0x3e, 0xcf, 0x45, 0xa0, 0xbe,
  0xa7, 0xa8, 0xfd, 0xbe, 0x96, 0x01, 0xae, 0x3e, 0x27, 0xb3, 0xcb, 0xbe,
  0x21, 0x40, 0x0b, 0xbf, 0x00, 0x86, 0x9e, 0x3a, 0xff, 0x07, 0x10, 0xbe,
  0x00, 0x3b, 0x1b, 0xbe, 0x52, 0xec, 0xa0, 0xbe, 0xbc, 0xeb, 0x7d, 0x3e,
  0x62, 0x9c, 0x83, 0x3e, 0x33, 0xc0, 0x28, 0xbe, 0x29, 0x80, 0xb4, 0x3e,
  0x7b, 0xd6, 0xef, 0x3e, 0xf4, 0xd4, 0x7c, 0x3e, 0xb7, 0xa8, 0xea, 0xbd,
  0x2e, 0x41, 0x9f, 0xbe, 0x0e, 0xc1, 0xe3, 0xbe, 0x7c, 0x24, 0xaf, 0x3c,
  0xd0, 0x9f, 0x10, 0x3e, 0xbe, 0x34, 0x9c, 0xbe, 0x84, 0x36, 0x95, 0x3c,
  0xf6, 0x3d, 0x0f, 0xbf, 0xf8, 0xc4, 0x65, 0x3d, 0xdd, 0x93, 0x48, 0x3e,
  0xe8, 0xa1, 0xbf, 0x3e, 0x74, 0x56, 0x3b, 0xbc, 0x50, 0x87, 0xf6, 0xbe,
  0x44, 0x60, 0xc2, 0x3e, 0x97, 0x98, 0x0b, 0x3e, 0x16, 0xdb, 0x5c, 0xbe,
  0x5a, 0x79, 0xdb, 0x3e, 0x7c, 0xc7, 0x02, 0x3f, 0xe4, 0x2c, 0x7d, 0xbe,
  0xca, 0x5c, 0x06, 0xbe, 0x0f, 0xa6, 0x6a, 0xbe, 0xf3, 0x4d, 0x06, 0x3e,
  0x47, 0x6d, 0xe8, 0x3e, 0x53, 0xb1, 0x99, 0x3e, 0xf0, 0xff, 0xcf, 0xbe,
  0x57, 0x2c, 0x77, 0xbd, 0x1e, 0x40, 0xcc, 0x3d, 0x17, 0x53, 0x3c, 0xbe,
  0x5a, 0x5b, 0x14, 0xbd, 0xc8, 0x2f, 0x27, 0xbe, 0xc7, 0x04, 0x46, 0xbe,
  0xd4, 0xda, 0x7f, 0x3e, 0x40, 0x68, 0x93, 0x3e, 0xec, 0x04, 0x88, 0xbe,
  0x27, 0xb5, 0x79, 0x3e, 0xfe, 0xd7, 0xca, 0xbe, 0x82, 0x46, 0xe1, 0x3e,
  0xc6, 0x50, 0xca, 0xbd, 0xcc, 0xc9, 0x6c, 0x3e, 0xda, 0x02, 0x07, 0x3e,
  0x9f, 0xd4, 0x86, 0x3e, 0xe0, 0x57, 0x39, 0x3d, 0x94, 0x33, 0xbf, 0x3d,
  0x27, 0x61, 0x49, 0x3e, 0x04, 0x02, 0x39, 0xbd, 0x26, 0x66, 0xd8, 0x3e,
  0xd7, 0x56, 0x9a, 0x3e, 0x70, 0x30, 0x91, 0x3d, 0xdd, 0x03, 0xf8, 0xbd,
  0x57, 0x73, 0x8c, 0xbe, 0x58, 0xe6, 0x7d, 0xbc, 0xcd, 0x87, 0xf5, 0xbe,
  0x57, 0xc0, 0x53, 0xbd, 0x60, 0x7b, 0x50, 0x3e, 0xc2, 0xfe, 0xdd, 0x3d,
  0x04, 0xba, 0x14, 0x3d, 0xe0, 0xe8, 0xe6, 0xbb, 0x8a, 0xa3, 0x24, 0xbe,
  0x8c, 0xdb, 0xfe, 0xbe, 0x8d, 0x6d, 0x80, 0x3e, 0x81, 0x22, 0x12, 0xbd,
  0x45, 0xf6, 0x16, 0x3e, 0xa9, 0xa7, 0x05, 0x3e, 0xbe, 0x99, 0x87, 0x3e,
  0xf4, 0x45, 0xac, 0x3d, 0xac, 0xc3, 0x87, 0xbc, 0x18, 0xd3, 0x80, 0x3d,
  0x19, 0x7b, 0xaf, 0x3d, 0x60, 0x2d, 0x15, 0xbe, 0x49, 0x76, 0x47, 0xbc,
  0x64, 0x62, 0xa7, 0xbe, 0x1d, 0x26, 0xc6, 0xbd, 0x64, 0x8a, 0xb2, 0x3d,
  0x80, 0x16, 0xe7, 0x3c, 0x3c, 0xfb, 0x39, 0xbe, 0x36, 0xf0, 0x1b, 0x3e,
  0xde, 0x61, 0xc0, 0xbe, 0xa0, 0x6d, 0x05, 0x3e, 0x30, 0xf8, 0xff, 0x3e,
  0xc2, 0x89, 0x91, 0xbe, 0xdd, 0x3f, 0x4a, 0xbe, 0xb3, 0x45, 0x63, 0xbe,
  0xa6, 0x0b, 0x02, 0x3e, 0x10, 0xe1, 0xeb, 0xbb, 0x88, 0x08, 0x44, 0x3e,
  0x73, 0x2c, 0xf0, 0x3e, 0xcb, 0x02, 0x88, 0xbd, 0x40, 0x1b, 0x95, 0x3e,
  0xd8, 0x12, 0xb6, 0x3d, 0x80, 0xdb, 0x1a, 0xbe, 0x6f, 0x9f, 0x06, 0xbe,
  0xe0, 0xc6, 0xb5, 0xbb, 0x4c, 0x6c, 0xc2, 0x3d, 0x1b, 0x30, 0x92, 0x3d,
  0xff, 0x6f, 0xef, 0x3d, 0xd8, 0x75, 0xff, 0xbd, 0x38, 0xb9, 0xf6, 0x3d,
  0x6f, 0xcb, 0xa5, 0x3d, 0x26, 0x47, 0x80, 0xbe, 0x9c, 0x39, 0xb0, 0x3e,
  0xeb, 0x68, 0xaa, 0xbe, 0x18, 0x5c, 0x46, 0x3c, 0x60, 0x22, 0xb0, 0x3e,
  0xaa, 0x79, 0x92, 0xbe, 0x59, 0xae, 0xde, 0xbd, 0xf3, 0x73, 0x24, 0x3b,
  0x7a, 0xb3, 0x82, 0x3e, 0xc5, 0xc9, 0xa0, 0x3e, 0x86, 0x6d, 0x94, 0x3c,
  0x8a, 0xcc, 0xc0, 0xbd, 0x2a, 0xcf, 0x79, 0x3d, 0xe4, 0x9c, 0xcb, 0xbd,
  0x05, 0x45, 0xb9, 0x3e, 0xd9, 0xe4, 0xd0, 0x3d, 0xf1, 0x47, 0xa5, 0x3d,
  0xdc, 0x6b, 0x97, 0xbe, 0xb7, 0x4f, 0x50, 0xbe, 0x88, 0xa1, 0x26, 0x3e,
  0xba, 0xe1, 0x49, 0x3d, 0xd3, 0xed, 0x64, 0x3e, 0x9e, 0x58, 0x91, 0x3e,
  0x3f, 0xa9, 0x6b, 0xbe, 0x60, 0x2f, 0x45, 0x3e, 0x91, 0x80, 0x51, 0x3e,
  0x77, 0x9c, 0x43, 0xbe, 0xf7, 0x65, 0xaa, 0x3e, 0xe2, 0x87, 0x7a, 0x3e,
  0xe1, 0x4f, 0x9f, 0xbe, 0xcc, 0xfc, 0x45, 0xbd, 0x12, 0x0c, 0x4e, 0xbe,
  0x2f, 0x4c, 0x5c, 0xbe, 0x04, 0x09, 0x6c, 0xbe, 0x59, 0xaf, 0x98, 0x3e,
  0xe5, 0xee, 0x15, 0x3e, 0x8e, 0x68, 0x72, 0x3e, 0x36, 0x7d, 0x3f, 0xbe,
  0xfd, 0x7d, 0x86, 0x3d, 0xe4, 0x61, 0x40, 0x3e, 0xd2, 0x35, 0x90, 0x3d,
  0x9d, 0xc9, 0xfe, 0xbc, 0x85, 0x01, 0xa5, 0xbe, 0x1a, 0xca, 0xa1, 0xbe,
  0x0e, 0xc0, 0x75, 0xbe, 0x31, 0xf8, 0x23, 0xbe, 0x19, 0xc2, 0x4d, 0x3e,
  0xd4, 0xe6, 0x12, 0x3e, 0x4b, 0xe6, 0xbb, 0xbe, 0x89, 0x46, 0x37, 0x3e,
  0x17, 0x4c, 0x58, 0xbe, 0x7a, 0x5e, 0x3e, 0x3e, 0x78, 0x50, 0x9a, 0xbc,
  0x07, 0xef, 0x60, 0xbe, 0xf5, 0x8b, 0xae, 0x3e, 0xf6, 0xae, 0xa6, 0x3c,
  0xb9, 0x9f, 0x9c, 0x3d, 0x2d, 0xd3, 0x43, 0x3e, 0x54, 0xc8, 0x19, 0xbe,
  0x64, 0x7e, 0x26, 0x3d, 0x9c, 0x29, 0x47, 0x3d, 0x71, 0xae, 0x20, 0xbd,
  0x4e, 0x03, 0x3e, 0xbe, 0x39, 0xaa, 0x8b, 0x3e, 0x0c, 0xa6, 0x7e, 0x3e,
  0x6f, 0xbe, 0x37, 0xbc, 0x84, 0x81, 0xa3, 0x3e, 0x8d, 0x13, 0x72, 0x3e,
  0xa4, 0xce, 0xcb, 0xbd, 0xda, 0xe9, 0x8b, 0x3e, 0x0e, 0xfb, 0xf5, 0x3c,
  0x68, 0x20, 0x91, 0x3e, 0x2a, 0x7e, 0x92, 0x3e, 0x3b, 0xd5, 0x4c, 0x3e,
  0x77, 0x88, 0x93, 0x3e, 0x55, 0xfb, 0xa4, 0xbd, 0xf8, 0x15, 0x2c, 0x3e,
  0x9c, 0x5b, 0x6b, 0x3e, 0x60, 0x4a, 0x2b, 0x3e, 0x4e, 0x77, 0x08, 0x3e,
  0x06, 0xa3, 0x6c, 0x3e, 0xf6, 0xc0, 0xba, 0x3d, 0x1b, 0xdb, 0x7d, 0x3e,
  0x21, 0x33, 0x87, 0xbd, 0xb2, 0x37, 0xb2, 0x3e, 0x14, 0x07, 0x69, 0x3e,
  0x2d, 0xbe, 0x5b, 0x3e, 0x15, 0x4b, 0x1c, 0x3d, 0xa8, 0x6e, 0x8a, 0xbe,
  0xf9, 0x85, 0x9a, 0xbe, 0xec, 0x7d, 0xe6, 0xbd, 0x46, 0x1e, 0xe3, 0xbc,
  0x43, 0x1f, 0x0b, 0xbd, 0x70, 0x6c, 0x22, 0xbc, 0xde, 0xde, 0x46, 0x3d,
  0x14, 0x8e, 0x31, 0xbe, 0xa3, 0x5c, 0x6d, 0xbe, 0x3a, 0xf4, 0x5a, 0xbe,
  0xf3, 0x61, 0x83, 0xbe, 0xbb, 0x93, 0xa4, 0xbe, 0xf0, 0xde, 0x90, 0xbe,
  0x38, 0xd3, 0x1a, 0xbe, 0x71, 0x6f, 0xbf, 0xbc, 0xab, 0x58, 0xa8, 0xbd,
  0x2e, 0xf2, 0xaf, 0x3e, 0x05, 0x9b, 0x18, 0x3d, 0x57, 0xd9, 0x33, 0x3e,
  0x10, 0x81, 0xa7, 0x3e, 0x03, 0x38, 0x9f, 0xbe, 0xea, 0xd1, 0x78, 0xbe,
  0x60, 0x23, 0xd2, 0xbd, 0xec, 0x4d, 0x87, 0x3e, 0xe8, 0xff, 0x3a, 0xbe,
  0x97, 0x44, 0xe1, 0xbd, 0xdd, 0x04, 0x37, 0x3e, 0xe8, 0x3e, 0x99, 0xbe,
  0x1a, 0x25, 0xa2, 0xbe, 0xc7, 0x62, 0x47, 0x3c, 0xb0, 0x40, 0x0b, 0x3e,
  0x68, 0xb8, 0x11, 0x3e, 0xe5, 0xe1, 0xe5, 0xbd, 0x65, 0xe1, 0x35, 0xbe,
  0xc5, 0xe3, 0xb6, 0xbe, 0x3e, 0x2b, 0x3d, 0x3e, 0x7a, 0xd7, 0xcd, 0x3d,
  0x51, 0xca, 0x9c, 0x3a, 0xd2, 0x79, 0xb0, 0x3e, 0x95, 0xcf, 0x34, 0xbe,
  0x64, 0x54, 0xb4, 0xbe, 0x8a, 0x62, 0x93, 0xbd, 0x5a, 0xac, 0xab, 0xbe,
  0x56, 0x21, 0x98, 0x3e, 0x8d, 0x43, 0xea, 0x3d, 0xb8, 0x79, 0x69, 0xbe,
  0x33, 0x56, 0x4f, 0xbe, 0x69, 0x55, 0x6d, 0x3d, 0x81, 0xea, 0x44, 0xbe,
  0x2e, 0x18, 0x5d, 0x3e, 0x3d, 0x55, 0x12, 0xbe, 0x40, 0xf3, 0xbc, 0xbe,
  0x4a, 0x76, 0x29, 0x3e, 0x05, 0x76, 0x43, 0xbe, 0x89, 0x66, 0xdc, 0x3a,
  0x02, 0x74, 0x8a, 0xbe, 0x1e, 0x49, 0xb6, 0xbe, 0xd7, 0x66, 0xc3, 0xba,
  0xbc, 0x25, 0x91, 0x3e, 0x69, 0xf9, 0xbd, 0xbe, 0x13, 0x0c, 0x79, 0x3e,
  0xcd, 0x64, 0xd4, 0xbe, 0xd9, 0x6a, 0xd6, 0x3e, 0x4c, 0x61, 0x9d, 0xbe,
  0x48, 0xc8, 0xc7, 0xbe, 0x9d, 0xcc, 0x71, 0xbd, 0xdc, 0xab, 0x11, 0xbe,
  0x18, 0x4d, 0x9a, 0xbc, 0x9e, 0x45, 0xdd, 0xbe, 0x23, 0xb7, 0x4e, 0x3d,
  0x73, 0x18, 0xd2, 0x3e, 0x8b, 0xe6, 0x01, 0xbf, 0xc4, 0xdf, 0xca, 0xbe,
  0x32, 0x2e, 0x89, 0xbe, 0x81, 0xaa, 0x69, 0xbd, 0x76, 0xa5, 0x35, 0xbe,
  0xa2, 0x07, 0x6d, 0x3e, 0xc7, 0x1e, 0x91, 0xbe, 0x73, 0xd6, 0xb9, 0x3e,
  0x8c, 0x48, 0x90, 0x3e, 0x29, 0xe7, 0x36, 0xbe, 0x07, 0xd7, 0x1a, 0x3e,
  0xa6, 0xdf, 0xfb, 0xbd, 0x73, 0x24, 0x8a, 0x3e, 0xba, 0xcb, 0x84, 0xbd,
  0x46, 0x6a, 0xbb, 0xbe, 0xa3, 0xc3, 0xa7, 0xbe, 0x7e, 0x06, 0xf5, 0xbe,
  0x1c, 0x0d, 0xfc, 0x3d, 0xa4, 0x28, 0x62, 0xbe, 0x0c, 0xed, 0x62, 0xbe,
  0xae, 0x8a, 0xc5, 0x3e, 0xbe, 0x97, 0xec, 0xbe, 0xff, 0xbd, 0x44, 0x3d,
  0x9f, 0x18, 0xf4, 0x3d, 0x14, 0x09, 0x9a, 0xbe, 0x52, 0x9f, 0xb1, 0xbc,
  0x98, 0xa5, 0x98, 0xbe, 0xf0, 0x9d, 0x05, 0xbd, 0xf3, 0x89, 0x9f, 0x3e,
  0xb8, 0xfa, 0x2e, 0xbc, 0x2d, 0x8e, 0x88, 0x3e, 0xda, 0xfe, 0xff, 0xff,
  0x04, 0x00, 0x00, 0x00, 0x0c, 0x00, 0x00, 0x00, 0x28, 0x95, 0xd7, 0x3c,
  0xd2, 0xeb, 0x29, 0xbd, 0xce, 0xbb, 0x88, 0x3e, 0xf2, 0xfe, 0xff, 0xff,
  0x04, 0x00, 0x00, 0x00, 0x00, 0x01, 0x00, 0x00, 0x93, 0x76, 0x3d, 0x3d,
  0x5d, 0x61, 0x5b, 0x3e, 0xb4, 0x41, 0xa5, 0xbd, 0xfb, 0x17, 0x92, 0xbe,
  0x81, 0xa4, 0x02, 0xbe, 0x10, 0x57, 0x66, 0x3e, 0xfb, 0x1d, 0x7c, 0x3e,
  0x3d, 0x93, 0x19, 0x3e, 0x05, 0x3b, 0x1a, 0xbe, 0x69, 0x9d, 0xc4, 0xbd,
  0xf9, 0x16, 0x5c, 0x3e, 0x9d, 0x19, 0x06, 0x3d, 0xa1, 0x21, 0xef, 0x3d,
  0xa9, 0x6f, 0xd4, 0xbd, 0x40, 0x5f, 0x08, 0xbe, 0xad, 0x89, 0x84, 0x3e,
  0x6c, 0x9c, 0xb9, 0xbd, 0x1b, 0xbd, 0x37, 0xbe, 0xef, 0xdd, 0x9a, 0xbe,
  0x5b, 0x9b, 0xb4, 0x3e, 0x54, 0xa1, 0x0b, 0x3e, 0x9c, 0x33, 0x77, 0xbe,
  0x48, 0xc0, 0x25, 0x3e, 0xb1, 0x0e, 0x09, 0x3f, 0xed, 0x5c, 0x16, 0x3e,
  0x16, 0xdd, 0xb4, 0xbe, 0xb2, 0xe7, 0xfe, 0xbe, 0x61, 0xd1, 0xbf, 0x3d,
  0xa6, 0xbd, 0x0c, 0xbe, 0xf2, 0x17, 0xea, 0x3e, 0x6a, 0xde, 0x10, 0xbf,
  0x39, 0xd0, 0x79, 0x3e, 0xbe, 0x52, 0x84, 0x3d, 0x38, 0xc9, 0x59, 0xbf,
  0x5b, 0x88, 0xa4, 0xbe, 0x4a, 0x3d, 0x56, 0x3e, 0xfc, 0x34, 0xc7, 0xbe,
  0xfc, 0x3f, 0x29, 0xbf, 0xf6, 0x0c, 0x41, 0xbd, 0xd5, 0x2d, 0xbf, 0x3e,
  0x11, 0xf1, 0x32, 0xbe, 0x02, 0xb8, 0x37, 0xbe, 0x2a, 0x05, 0x4a, 0xbc,
  0xb2, 0xa6, 0x9e, 0x3e, 0x3c, 0x46, 0xaa, 0xbe, 0x27, 0xae, 0xf0, 0xbe,
  0xf7, 0x6b, 0x37, 0x3e, 0x4b, 0x91, 0xcb, 0xbe, 0xc0, 0xac, 0x3a, 0x3e,
  0xd1, 0xab, 0x34, 0xbf, 0x2f, 0x59, 0x17, 0x3e, 0x47, 0x39, 0x64, 0xbe,
  0xe3, 0x2a, 0x65, 0x3e, 0x2a, 0x10, 0x6d, 0xbe, 0x05, 0x05, 0x03, 0xbe,
  0x08, 0x86, 0x92, 0x3d, 0xc5, 0xa9, 0xb9, 0xbe, 0xb4, 0xe1, 0xc2, 0xbd,
  0x85, 0xe2, 0x09, 0x3e, 0x1e, 0xc9, 0xce, 0x3c, 0x32, 0xfd, 0x07, 0x3f,
  0xbc, 0x83, 0x0a, 0x3e, 0xc3, 0x04, 0x89, 0x3e, 0xc7, 0x04, 0x89, 0xbe,
  0x00, 0x00, 0x06, 0x00, 0x08, 0x00, 0x04, 0x00, 0x06, 0x00, 0x00, 0x00,
  0x04, 0x00, 0x00, 0x00, 0x00, 0x03, 0x00, 0x00, 0x01, 0x62, 0x3b, 0xbe,
  0x8c, 0xda, 0x3d, 0xbe, 0xa4, 0xfe, 0xdf, 0x3c, 0xbb, 0x40, 0x49, 0xbe,
  0x03, 0x06, 0xda, 0x3d, 0x28, 0xc3, 0x13, 0xbe, 0xa8, 0x5e, 0x78, 0xbd,
  0x8b, 0x99, 0xa8, 0x3c, 0xf3, 0xac, 0xe6, 0x3d, 0x2d, 0xcf, 0xc3, 0xbd,
  0x14, 0x92, 0x6b, 0xbc, 0x2a, 0xea, 0x99, 0xbd, 0x24, 0x34, 0xa7, 0xbd,
  0xee, 0x44, 0x3d, 0xbd, 0xcd, 0x00, 0xa9, 0xbe, 0x46, 0x23, 0x42, 0xbe,
  0x2b, 0xee, 0x8c, 0xbd, 0x26, 0x7a, 0x6c, 0x3d, 0x00, 0xd4, 0x04, 0x3e,
  0x6c, 0x0a, 0xc1, 0xbc, 0x7a, 0x7c, 0x1c, 0xbe, 0xe8, 0x6e, 0x71, 0x3e,
  0xad, 0x7f, 0x94, 0xbd, 0xee, 0x64, 0x1a, 0x3d, 0x4c, 0xc6, 0x39, 0x3d,
  0x2b, 0xde, 0x1e, 0x3e, 0xde, 0xed, 0x7d, 0xbe, 0xe8, 0x32, 0x4e, 0x3e,
  0x50, 0x39, 0xe4, 0xbb, 0x92, 0x5d, 0x48, 0xbe, 0xa0, 0x40, 0xa8, 0x3d,
  0x48, 0x7c, 0x4c, 0x3d, 0x39, 0xbc, 0x12, 0xbe, 0x5e, 0x27, 0x02, 0x3e,
  0xa8, 0x9f, 0x53, 0x3e, 0x41, 0xed, 0xc2, 0xbd, 0xc4, 0x62, 0xea, 0x3d,
  0xd0, 0xde, 0x07, 0x3e, 0xd6, 0x0a, 0xd4, 0x3d, 0xc4, 0xdf, 0x33, 0x3d,
  0x6b, 0x04, 0x67, 0xbd, 0x50, 0x5a, 0xcb, 0x3d, 0xc4, 0x1c, 0x17, 0x3d,
  0xd4, 0xbc, 0x18, 0xbc, 0x86, 0x0b, 0x5a, 0x3e, 0xa1, 0x68, 0x48, 0xbd,
  0xd8, 0x1f, 0x11, 0xbe, 0xc9, 0xb9, 0xda, 0x3d, 0x6e, 0x43, 0x9a, 0xbd,
  0xae, 0x5a, 0xfc, 0x3d, 0x1e, 0x89, 0x54, 0xbd, 0xf1, 0x11, 0xff, 0xbd,
  0xa2, 0x1f, 0x9f, 0x3d, 0x02, 0x11, 0xf9, 0xbd, 0x30, 0xcd, 0x5f, 0xbb,
  0x45, 0xe5, 0x1c, 0xbe, 0x51, 0x38, 0x2c, 0x3d, 0x9e, 0x6e, 0x6c, 0xbd,
  0x00, 0x72, 0x02, 0x39, 0xd7, 0x39, 0x70, 0x3e, 0x36, 0x24, 0x83, 0xbe,
  0x46, 0x3a, 0x8b, 0x3c, 0x40, 0x13, 0xa9, 0x3b, 0xd8, 0x35, 0x7b, 0xbd,
  0xe4, 0xdf, 0xbe, 0x3c, 0xca, 0x0a, 0x3b, 0x3e, 0xd4, 0x81, 0x9e, 0x3e,
  0x49, 0xed, 0x27, 0xbd, 0xe4, 0x17, 0x80, 0x3d, 0x80, 0x15, 0x9d, 0x3e,
  0x5e, 0x76, 0x1f, 0xbd, 0x5a, 0x7b, 0xdf, 0xbd, 0xc8, 0xc9, 0x2b, 0xbc,
  0xec, 0x0c, 0x93, 0x3d, 0x7a, 0xbf, 0x1e, 0xbe, 0xe2, 0xb0, 0xf2, 0xbd,
  0xe8, 0xf2, 0x28, 0x3c, 0x75, 0x4e, 0x22, 0x3e, 0x06, 0x53, 0x8f, 0xbe,
  0xa1, 0x2f, 0x97, 0xbd, 0x80, 0x15, 0x57, 0xbd, 0x54, 0x58, 0xa2, 0x3d,
  0xb0, 0x5b, 0x00, 0xbd, 0xe1, 0xb9, 0xde, 0xbd, 0xba, 0x9f, 0x0a, 0xbe,
  0x18, 0x79, 0x27, 0x3e, 0x36, 0x72, 0xdc, 0x3d, 0xa8, 0x24, 0x4a, 0xbd,
  0x37, 0x01, 0xc2, 0xbd, 0x60, 0xf1, 0x3f, 0xbe, 0xd8, 0x2a, 0xab, 0xbd,
  0xc1, 0xa1, 0x48, 0x3e, 0x36, 0xc3, 0xee, 0xbd, 0x32, 0xf9, 0xa3, 0x3d,
  0x78, 0xea, 0xbe, 0x3d, 0x86, 0x1a, 0x97, 0xbe, 0x6b, 0x60, 0x17, 0xbe,
  0xd6, 0x89, 0xfe, 0xbc, 0xd4, 0x4d, 0xa7, 0xbe, 0x66, 0xa5, 0xe6, 0xbd,
  0x42, 0xed, 0x9b, 0xbd, 0x76, 0x61, 0x9b, 0x3d, 0x8e, 0x9e, 0x6d, 0xbd,
  0xe5, 0x23, 0xd0, 0xbd, 0x64, 0xe9, 0xcc, 0x3c, 0xd8, 0x60, 0x1a, 0x3e,
  0x8a, 0x37, 0x05, 0x3e, 0xa0, 0x64, 0xa0, 0xbc, 0xea, 0xb5, 0xe6, 0x3c,
  0x07, 0xb7, 0x37, 0x3d, 0xcc, 0x58, 0x6a, 0x3c, 0xcb, 0x72, 0x10, 0x3e,
  0x78, 0xdf, 0x77, 0x3b, 0x6c, 0x70, 0x52, 0x3d, 0xdc, 0xbb, 0x0e, 0x3e,
  0x38, 0xea, 0x23, 0x3c, 0x0e, 0xb2, 0x00, 0xbd, 0x68, 0x76, 0xa6, 0xbd,
  0xaa, 0x0d, 0x3e, 0xbd, 0xa5, 0xd8, 0x92, 0xbd, 0xb2, 0x6e, 0x88, 0x3d,
  0xa7, 0x71, 0xc3, 0x3c, 0x8b, 0x45, 0x86, 0x3d, 0x78, 0xcc, 0x6f, 0x3d,
  0xaf, 0x08, 0xda, 0x3d, 0x02, 0x88, 0x76, 0xbe, 0x2b, 0xe5, 0xd8, 0x3d,
  0xf6, 0x38, 0x4e, 0x3d, 0x74, 0x56, 0xd2, 0x3c, 0x8c, 0x24, 0x90, 0x3d,
  0x66, 0xed, 0x05, 0x3e, 0x0a, 0x87, 0xa1, 0x3d, 0x48, 0x8c, 0x33, 0xbd,
  0x44, 0xab, 0x70, 0x3d, 0xc6, 0x6e, 0x7d, 0x3e, 0x46, 0x4d, 0xa2, 0x3d,
  0x92, 0xe7, 0x23, 0xbd, 0xa6, 0xa2, 0x82, 0x3d, 0x70, 0x33, 0xec, 0x3c,
  0x24, 0xa5, 0x33, 0xbc, 0x24, 0xcc, 0xda, 0xbc, 0xdb, 0x0a, 0xa0, 0x3c,
  0xa0, 0x7e, 0x57, 0xbd, 0x44, 0x88, 0x65, 0x3d, 0x48, 0x18, 0x6d, 0xbc,
  0x5b, 0xab, 0x37, 0xbe, 0x48, 0xde, 0x1f, 0x3e, 0xe4, 0xa0, 0xef, 0x3d,
  0xdc, 0x78, 0xf4, 0xbc, 0x44, 0x53, 0x9c, 0xbc, 0xd4, 0x13, 0xa8, 0x3d,
  0x84, 0x2a, 0xe1, 0x3d, 0xf4, 0x1e, 0x68, 0xbd, 0xe4, 0x81, 0x05, 0xbd,
  0x1a, 0xc2, 0xaa, 0x3c, 0x90, 0x37, 0x5c, 0xbc, 0x4c, 0x0f, 0x4d, 0xbd,
  0xd6, 0x82, 0xef, 0x3d, 0x0b, 0x5c, 0x32, 0x3e, 0x91, 0xcf, 0xa5, 0x3d,
  0x90, 0xae, 0x8a, 0x3b, 0x66, 0x96, 0xe4, 0x3d, 0x85, 0xc1, 0x54, 0x3e,
  0x94, 0xa4, 0x03, 0x3e, 0xc6, 0x28, 0xc3, 0xbd, 0x9a, 0x15, 0x8f, 0xbc,
  0x03, 0x8f, 0x35, 0xbe, 0xc6, 0xdb, 0xed, 0x3d, 0xdb, 0x45, 0x3e, 0xbe,
  0x76, 0xad, 0x4e, 0xbd, 0x6a, 0x6a, 0x98, 0xbd, 0x65, 0x34, 0xba, 0xbd,
  0x03, 0xa3, 0x11, 0xbe, 0xc4, 0xdd, 0x63, 0x3d, 0x0f, 0xd8, 0xca, 0xbd,
  0xaa, 0xe7, 0x9f, 0x3e, 0xb0, 0xa2, 0xbd, 0xbd, 0x67, 0x4f, 0x89, 0x3e,
  0x91, 0x89, 0xb7, 0xbd, 0x30, 0x83, 0xb2, 0xbc, 0x4e, 0xee, 0xeb, 0x3d,
  0x4b, 0xf9, 0xce, 0x3d, 0xfd, 0x1a, 0x36, 0x3e, 0x61, 0xa0, 0x6a, 0xbe,
  0x44, 0x0e, 0x7d, 0xbd, 0xc9, 0xaf, 0x43, 0xbd, 0x13, 0xc0, 0xde, 0xbd,
  0x0d, 0x55, 0x95, 0x3d, 0xf9, 0xc8, 0xe1, 0xbd, 0x6c, 0x27, 0x9c, 0x3c,
  0x4e, 0xaa, 0x27, 0x3e, 0x52, 0x02, 0x20, 0xbe, 0x04, 0xfd, 0xff, 0xff,
  0x08, 0xfd, 0xff, 0xff, 0x0f, 0x00, 0x00, 0x00, 0x4d, 0x4c, 0x49, 0x52,
  0x20, 0x43, 0x6f, 0x6e, 0x76, 0x65, 0x72, 0x74, 0x65, 0x64, 0x2e, 0x00,
  0x01, 0x00, 0x00, 0x00, 0x14, 0x00, 0x00, 0x00, 0x00, 0x00, 0x0e, 0x00,
  0x18, 0x00, 0x14, 0x00, 0x10, 0x00, 0x0c, 0x00, 0x08, 0x00, 0x04, 0x00,
  0x0e, 0x00, 0x00, 0x00, 0x14, 0x00, 0x00, 0x00, 0x1c, 0x00, 0x00, 0x00,
  0xa0, 0x00, 0x00, 0x00, 0xa4, 0x00, 0x00, 0x00, 0xa8, 0x00, 0x00, 0x00,
  0x04, 0x00, 0x00, 0x00, 0x6d, 0x61, 0x69, 0x6e, 0x00, 0x00, 0x00, 0x00,
  0x02, 0x00, 0x00, 0x00, 0x48, 0x00, 0x00, 0x00, 0x04, 0x00, 0x00, 0x00,
  0xce, 0xff, 0xff, 0xff, 0x10, 0x00, 0x00, 0x00, 0x00, 0x00, 0x00, 0x08,
  0x0c, 0x00, 0x00, 0x00, 0x10, 0x00, 0x00, 0x00, 0x7c, 0xfd, 0xff, 0xff,
  0x01, 0x00, 0x00, 0x00, 0x06, 0x00, 0x00, 0x00, 0x03, 0x00, 0x00, 0x00,
  0x05, 0x00, 0x00, 0x00, 0x01, 0x00, 0x00, 0x00, 0x03, 0x00, 0x00, 0x00,
  0x00, 0x00, 0x0e, 0x00, 0x16, 0x00, 0x00, 0x00, 0x10, 0x00, 0x0c, 0x00,
  0x0b, 0x00, 0x04, 0x00, 0x0e, 0x00, 0x00, 0x00, 0x18, 0x00, 0x00, 0x00,
  0x00, 0x00, 0x00, 0x08, 0x18, 0x00, 0x00, 0x00, 0x1c, 0x00, 0x00, 0x00,
  0x00, 0x00, 0x06, 0x00, 0x08, 0x00, 0x07, 0x00, 0x06, 0x00, 0x00, 0x00,
  0x00, 0x00, 0x00, 0x01, 0x01, 0x00, 0x00, 0x00, 0x05, 0x00, 0x00, 0x00,
  0x03, 0x00, 0x00, 0x00, 0x00, 0x00, 0x00, 0x00, 0x04, 0x00, 0x00, 0x00,
  0x02, 0x00, 0x00, 0x00, 0x01, 0x00, 0x00, 0x00, 0x06, 0x00, 0x00, 0x00,
  0x01, 0x00, 0x00, 0x00, 0x00, 0x00, 0x00, 0x00, 0x07, 0x00, 0x00, 0x00,
  0xf0, 0x01, 0x00, 0x00, 0x98, 0x01, 0x00, 0x00, 0x5c, 0x01, 0x00, 0x00,
  0x18, 0x01, 0x00, 0x00, 0xc8, 0x00, 0x00, 0x00, 0x40, 0x00, 0x00, 0x00,
  0x04, 0x00, 0x00, 0x00, 0x42, 0xfe, 0xff, 0xff, 0x00, 0x00, 0x00, 0x01,
  0x10, 0x00, 0x00, 0x00, 0x10, 0x00, 0x00, 0x00, 0x07, 0x00, 0x00, 0x00,
  0x18, 0x00, 0x00, 0x00, 0x2c, 0xfe, 0xff, 0xff, 0x08, 0x00, 0x00, 0x00,
  0x49, 0x64, 0x65, 0x6e, 0x74, 0x69, 0x74, 0x79, 0x00, 0x00, 0x00, 0x00,
  0x02, 0x00, 0x00, 0x00, 0x01, 0x00, 0x00, 0x00, 0x03, 0x00, 0x00, 0x00,
  0x7a, 0xfe, 0xff, 0xff, 0x00, 0x00, 0x00, 0x01, 0x10, 0x00, 0x00, 0x00,
  0x10, 0x00, 0x00, 0x00, 0x06, 0x00, 0x00, 0x00, 0x64, 0x00, 0x00, 0x00,
  0x64, 0xfe, 0xff, 0xff, 0x54, 0x00, 0x00, 0x00, 0x6d, 0x6f, 0x64, 0x65,
  0x6c, 0x2f, 0x74, 0x66, 0x2e, 0x6c, 0x69, 0x6e, 0x61, 0x6c, 0x67, 0x2e,
  0x6d, 0x61, 0x74, 0x6d, 0x75, 0x6c, 0x2f, 0x4d, 0x61, 0x74, 0x4d, 0x75,
  0x6c, 0x3b, 0x6d, 0x6f, 0x64, 0x65, 0x6c, 0x2f, 0x74, 0x66, 0x2e, 0x6e,
  0x6e, 0x2e, 0x72, 0x65, 0x6c, 0x75, 0x2f, 0x52, 0x65, 0x6c, 0x75, 0x3b,
  0x6d, 0x6f, 0x64, 0x65, 0x6c, 0x2f, 0x74, 0x66, 0x2e, 0x5f, 0x5f, 0x6f,
  0x70, 0x65, 0x72, 0x61, 0x74, 0x6f, 0x72, 0x73, 0x5f, 0x5f, 0x2e, 0x61,
  0x64, 0x64, 0x2f, 0x41, 0x64, 0x64, 0x56, 0x32, 0x00, 0x00, 0x00, 0x00,
  0x02, 0x00, 0x00, 0x00, 0x01, 0x00, 0x00, 0x00, 0x40, 0x00, 0x00, 0x00,
  0xfe, 0xfe, 0xff, 0xff, 0x00, 0x00, 0x00, 0x01, 0x10, 0x00, 0x00, 0x00,
  0x10, 0x00, 0x00, 0x00, 0x05, 0x00, 0x00, 0x00, 0x2c, 0x00, 0x00, 0x00,
  0xe8, 0xfe, 0xff, 0xff, 0x1d, 0x00, 0x00, 0x00, 0x6d, 0x6f, 0x64, 0x65,
  0x6c, 0x2f, 0x74, 0x66, 0x2e, 0x6c, 0x69, 0x6e, 0x61, 0x6c, 0x67, 0x2e,
  0x6d, 0x61, 0x74, 0x6d, 0x75, 0x6c, 0x2f, 0x4d, 0x61, 0x74, 0x4d, 0x75,
  0x6c, 0x00, 0x00, 0x00, 0x02, 0x00, 0x00, 0x00, 0x40, 0x00, 0x00, 0x00,
  0x07, 0x00, 0x00, 0x00, 0x4a, 0xff, 0xff, 0xff, 0x00, 0x00, 0x00, 0x01,
  0x10, 0x00, 0x00, 0x00, 0x10, 0x00, 0x00, 0x00, 0x04, 0x00, 0x00, 0x00,
  0x24, 0x00, 0x00, 0x00, 0x34, 0xff, 0xff, 0xff, 0x15, 0x00, 0x00, 0x00,
  0x6d, 0x6f, 0x64, 0x65, 0x6c, 0x2f, 0x61, 0x64, 0x64, 0x6d, 0x6d, 0x5f,
  0x31, 0x2f, 0x41, 0x64, 0x64, 0x56, 0x32, 0x2f, 0x79, 0x00, 0x00, 0x00,
  0x01, 0x00, 0x00, 0x00, 0x03, 0x00, 0x00, 0x00, 0x8a, 0xff, 0xff, 0xff,
  0x00, 0x00, 0x00, 0x01, 0x10, 0x00, 0x00, 0x00, 0x10, 0x00, 0x00, 0x00,
  0x03, 0x00, 0x00, 0x00, 0x1c, 0x00, 0x00, 0x00, 0x74, 0xff, 0xff, 0xff,
  0x0f, 0x00, 0x00, 0x00, 0x61, 0x72, 0x69, 0x74, 0x68, 0x2e, 0x63, 0x6f,
  0x6e, 0x73, 0x74, 0x61, 0x6e, 0x74, 0x31, 0x00, 0x01, 0x00, 0x00, 0x00,
  0x40, 0x00, 0x00, 0x00, 0xc2, 0xff, 0xff, 0xff, 0x00, 0x00, 0x00, 0x01,
  0x10, 0x00, 0x00, 0x00, 0x10, 0x00, 0x00, 0x00, 0x02, 0x00, 0x00, 0x00,
  0x1c, 0x00, 0x00, 0x00, 0xac, 0xff, 0xff, 0xff, 0x0e, 0x00, 0x00, 0x00,
  0x61, 0x72, 0x69, 0x74, 0x68, 0x2e, 0x63, 0x6f, 0x6e, 0x73, 0x74, 0x61,
  0x6e, 0x74, 0x00, 0x00, 0x02, 0x00, 0x00, 0x00, 0x03, 0x00, 0x00, 0x00,
  0x40, 0x00, 0x00, 0x00, 0x00, 0x00, 0x16, 0x00, 0x18, 0x00, 0x14, 0x00,
  0x00, 0x00, 0x10, 0x00, 0x0c, 0x00, 0x08, 0x00, 0x00, 0x00, 0x00, 0x00,
  0x00, 0x00, 0x07, 0x00, 0x16, 0x00, 0x00, 0x00, 0x00, 0x00, 0x00, 0x01,
  0x14, 0x00, 0x00, 0x00, 0x14, 0x00, 0x00, 0x00, 0x01, 0x00, 0x00, 0x00,
  0x18, 0x00, 0x00, 0x00, 0x04, 0x00, 0x04, 0x00, 0x04, 0x00, 0x00, 0x00,
  0x05, 0x00, 0x00, 0x00, 0x69, 0x6e, 0x70, 0x75, 0x74, 0x00, 0x00, 0x00,
  0x02, 0x00, 0x00, 0x00, 0x01, 0x00, 0x00, 0x00, 0x07, 0x00, 0x00, 0x00,
  0x01, 0x00, 0x00, 0x00, 0x10, 0x00, 0x00, 0x00, 0x0c, 0x00, 0x0c, 0x00,
  0x0b, 0x00, 0x00, 0x00, 0x00, 0x00, 0x04, 0x00, 0x0c, 0x00, 0x00, 0x00,
  0x09, 0x00, 0x00, 0x00, 0x00, 0x00, 0x00, 0x09
};