alignas(16) const unsigned char g_model[] = {
  0x1c, 0x00, 0x00, 0x00, 0x54, 0x46, 0x4c, 0x33, 0x14, 0x00, 0x20, 0x00,
  0x1c, 0x00, 0x18, 0x00, 0x14, 0x00, 0x10, 0x00, 0x0c, 0x00, 0x00, 0x00,
  0x08, 0x00, 0x04, 0x00, 0x14, 0x00, 0x00, 0x00, 0x1c, 0x00, 0x00, 0x00,
  0x1c, 0x00, 0x00, 0x00, 0x74, 0x00, 0x00, 0x00, 0x80, 0x04, 0x00, 0x00,
  0x90, 0x04, 0x00, 0x00, 0x84, 0x07, 0x00, 0x00, 0x03, 0x00, 0x00, 0x00,
  0x00, 0x00, 0x00, 0x00, 0x02, 0x00, 0x00, 0x00, 0x34, 0x00, 0x00, 0x00,
  0x04, 0x00, 0x00, 0x00, 0xdc, 0xff, 0xff, 0xff, 0x09, 0x00, 0x00, 0x00,
  0x04, 0x00, 0x00, 0x00, 0x13, 0x00, 0x00, 0x00, 0x43, 0x4f, 0x4e, 0x56,
  0x45, 0x52, 0x53, 0x49, 0x4f, 0x4e, 0x5f, 0x4d, 0x45, 0x54, 0x41, 0x44,
  0x41, 0x54, 0x41, 0x00, 0x08, 0x00, 0x0c, 0x00, 0x08, 0x00, 0x04, 0x00,
  0x08, 0x00, 0x00, 0x00, 0x08, 0x00, 0x00, 0x00, 0x04, 0x00, 0x00, 0x00,
  0x13, 0x00, 0x00, 0x00, 0x6d, 0x69, 0x6e, 0x5f, 0x72, 0x75, 0x6e, 0x74,
  0x69, 0x6d, 0x65, 0x5f, 0x76, 0x65, 0x72, 0x73, 0x69, 0x6f, 0x6e, 0x00,
  0x0a, 0x00, 0x00, 0x00, 0x08, 0x04, 0x00, 0x00, 0x00, 0x04, 0x00, 0x00,
  0x30, 0x03, 0x00, 0x00, 0xd8, 0x02, 0x00, 0x00, 0xbc, 0x02, 0x00, 0x00,
  0xac, 0x00, 0x00, 0x00, 0xa4, 0x00, 0x00, 0x00, 0x9c, 0x00, 0x00, 0x00,
  0x7c, 0x00, 0x00, 0x00, 0x04, 0x00, 0x00, 0x00, 0xf6, 0xfc, 0xff, 0xff,
  0x04, 0x00, 0x00, 0x00, 0x68, 0x00, 0x00, 0x00, 0x10, 0x00, 0x00, 0x00,
  0x00, 0x00, 0x00, 0x00, 0x08, 0x00, 0x0e, 0x00, 0x08, 0x00, 0x04, 0x00,
  0x08, 0x00, 0x00, 0x00, 0x14, 0x00, 0x00, 0x00, 0x2c, 0x00, 0x00, 0x00,
  0x00, 0x00, 0x0a, 0x00, 0x0c, 0x00, 0x08, 0x00, 0x00, 0x00, 0x07, 0x00,
  0x0a, 0x00, 0x00, 0x00, 0x00, 0x00, 0x00, 0x01, 0x04, 0x00, 0x00, 0x00,
  0x00, 0x00, 0x00, 0x00, 0x0c, 0x00, 0x18, 0x00, 0x14, 0x00, 0x10, 0x00,
  0x0c, 0x00, 0x04, 0x00, 0x0c, 0x00, 0x00, 0x00, 0xf5, 0x14, 0xdc, 0x2e,
  0x98, 0xf0, 0x66, 0xd2, 0x03, 0x00, 0x00, 0x00, 0x02, 0x00, 0x00, 0x00,
  0x04, 0x00, 0x00, 0x00, 0x06, 0x00, 0x00, 0x00, 0x32, 0x2e, 0x31, 0x38,
  0x2e, 0x30, 0x00, 0x00, 0x6a, 0xfd, 0xff, 0xff, 0x04, 0x00, 0x00, 0x00,
  0x10, 0x00, 0x00, 0x00, 0x31, 0x2e, 0x35, 0x2e, 0x30, 0x00, 0x00, 0x00,
  0x00, 0x00, 0x00, 0x00, 0x00, 0x00, 0x00, 0x00, 0xc0, 0xf9, 0xff, 0xff,
  0xc4, 0xf9, 0xff, 0xff, 0x8e, 0xfd, 0xff, 0xff, 0x04, 0x00, 0x00, 0x00,
  0x00, 0x02, 0x00, 0x00, 0x27, 0x33, 0x83, 0x3e, 0x3a, 0x7a, 0x88, 0xbe,
  0x3f, 0x17, 0x53, 0xbf, 0x39, 0xfa, 0xb6, 0x3d, 0xed, 0xb7, 0xca, 0x3f,
  0xb3, 0xdd, 0x53, 0xbe, 0x79, 0xed, 0xff, 0x3f, 0x02, 0xc5, 0x0b, 0xbf,
  0x63, 0x23, 0xbd, 0xbd, 0xc2, 0x5a, 0x8e, 0x3f, 0xa2, 0x55, 0x6e, 0xbe,
  0x78, 0x53, 0x86, 0xbf, 0x9d, 0xac, 0x3b, 0x3e, 0xe1, 0x0b, 0xe5, 0xbe,
  0x46, 0x8c, 0x92, 0xbf, 0x39, 0xcf, 0xa4, 0xbe, 0x01, 0xdd, 0x03, 0xbf,
  0x00, 0xb2, 0x31, 0xbf, 0x48, 0x8b, 0xd4, 0xbc, 0xc9, 0xf3, 0x3d, 0x3e,
  0x95, 0x7a, 0x94, 0x3f, 0xc9, 0x6c, 0x0f, 0x3f, 0x83, 0xad, 0x35, 0x3f,
  0x8c, 0x4e, 0xe3, 0xbe, 0x76, 0xca, 0xd0, 0xbe, 0xfe, 0xa9, 0x3f, 0xbf,
  0x87, 0x53, 0x1c, 0x3f, 0x01, 0x2e, 0x2d, 0xbd, 0xa0, 0x9b, 0x13, 0xbc,
  0x05, 0x2b, 0x1c, 0x3f, 0xce, 0x8d, 0x52, 0xbf, 0x93, 0x95, 0x91, 0xbd,
  0x0a, 0xf0, 0xc7, 0x3e, 0x36, 0x55, 0x36, 0xbf, 0xc6, 0x97, 0xf7, 0xbe,
  0x03, 0x75, 0x02, 0xbf, 0xb2, 0x80, 0xfc, 0xbe, 0xd3, 0x0a, 0x40, 0xbf,
  0x98, 0x8c, 0xa2, 0xbe, 0xa9, 0x55, 0x6d, 0x3e, 0x83, 0x3d, 0xc4, 0xbe,
  0x58, 0xb6, 0xd0, 0xbe, 0x74, 0xdf, 0x45, 0xbe, 0x65, 0x45, 0x1d, 0xbf,
  0x50, 0x9d, 0x35, 0xbe, 0x36, 0xf7, 0x7d, 0xbe, 0xa4, 0x5f, 0x76, 0x3d,
  0x8f, 0x7c, 0x85, 0xbe, 0x6a, 0x9a, 0x65, 0xbe, 0xa7, 0x5b, 0xde, 0x3e,
  0xcf, 0x63, 0xb3, 0xbe, 0xba, 0xc1, 0x1d, 0x3e, 0xba, 0x4d, 0xf7, 0x3e,
  0xe3, 0x88, 0xac, 0xbe, 0x88, 0x32, 0x7b, 0x3e, 0x88, 0x0d, 0xd0, 0xbc,
  0x28, 0xa6, 0x7d, 0xbc, 0x18, 0x75, 0xd5, 0x3e, 0x37, 0x50, 0xbf, 0x3e,
  0xf1, 0xbb, 0x97, 0x3e, 0x77, 0xfa, 0x0f, 0x3f, 0x62, 0xfa, 0x42, 0xbf,
  0x24, 0xbd, 0xbb, 0xbc, 0xf7, 0x65, 0xf0, 0xbe, 0xd4, 0x0e, 0x8a, 0x3d,
  0xef, 0x6a, 0x56, 0x3e, 0x9c, 0xad, 0x10, 0xbe, 0xcb, 0x9e, 0x79, 0x3e,
  0x64, 0xdb, 0x11, 0x3f, 0x68, 0x5e, 0x8a, 0x3f, 0x27, 0xf0, 0x9c, 0x3e,
  0x86, 0xbe, 0x56, 0xbe, 0x52, 0xf2, 0xea, 0x3e, 0x7a, 0xa6, 0xa3, 0xbe,
  0x98, 0xc8, 0x80, 0xbf, 0xb1, 0xb7, 0xe7, 0xbe, 0xe6, 0xce, 0x88, 0xbf,
  0x3d, 0x7c, 0x89, 0xbf, 0x25, 0xf8, 0x8b, 0x3e, 0xf1, 0x31, 0x66, 0xbf,
  0x47, 0xd3, 0x30, 0xbd, 0xb4, 0xa9, 0x11, 0xbf, 0x4e, 0xc7, 0xf1, 0xbe,
  0x5c, 0xd7, 0x68, 0x3d, 0x8e, 0x1a, 0x82, 0x3e, 0x7c, 0xda, 0x27, 0x3f,
  0xd8, 0x69, 0x03, 0xbf, 0x2c, 0x04, 0x8e, 0xbe, 0xe1, 0x34, 0x62, 0x3f,
  0x14, 0xc2, 0xe6, 0xbb, 0xd5, 0x75, 0xe4, 0xbd, 0x06, 0x3e, 0x70, 0x3e,
  0x4c, 0x15, 0x6e, 0xbf, 0x69, 0xfe, 0x9f, 0xbf, 0x9f, 0xd3, 0x8c, 0x3e,
  0x7a, 0xd6, 0xe7, 0xbe, 0x60, 0x37, 0xa2, 0xbe, 0xf8, 0x43, 0xc9, 0x3c,
  0x79, 0x49, 0xb0, 0xbc, 0x7a, 0x81, 0x6e, 0x3d, 0xe6, 0x8b, 0xd2, 0xbd,
  0xc0, 0xbb, 0xb2, 0xbe, 0x82, 0xd0, 0x73, 0xbd, 0xf0, 0x98, 0x96, 0xbe,
  0x40, 0x35, 0x46, 0xbc, 0xcc, 0xf4, 0xd3, 0xbd, 0x78, 0x75, 0xdd, 0xbe,
  0x8d, 0xb6, 0xe6, 0xbd, 0x80, 0xf1, 0xdf, 0xbd, 0x94, 0xe6, 0xcb, 0x3e,
  0x92, 0x92, 0xab, 0x3e, 0x8a, 0xe8, 0x2b, 0xbe, 0x0c, 0x47, 0x0a, 0x3c,
  0x44, 0x4d, 0x72, 0xbf, 0x00, 0x70, 0x7a, 0x3b, 0xe8, 0x91, 0xbc, 0x3e,
  0x48, 0x8d, 0xda, 0x3e, 0x5a, 0x93, 0x14, 0x3e, 0x20, 0xa2, 0x32, 0x3e,
  0xe0, 0x58, 0x6f, 0xbf, 0x3b, 0x40, 0x14, 0x3d, 0xab, 0x43, 0x49, 0x3f,
  0xb3, 0x66, 0x16, 0x3f, 0xe6, 0x94, 0x38, 0x3f, 0x86, 0x78, 0x88, 0xbe,
  0x80, 0x50, 0x92, 0xbf, 0xfd, 0x23, 0xc3, 0x3e, 0x70, 0x1d, 0x5b, 0x3c,
  0x9a, 0xff, 0xff, 0xff, 0x04, 0x00, 0x00, 0x00, 0x0c, 0x00, 0x00, 0x00,
  0xde, 0x8b, 0x75, 0xbe, 0x05, 0x28, 0x1f, 0xbe, 0xca, 0x48, 0xd6, 0xbc,
  0xb2, 0xff, 0xff, 0xff, 0x04, 0x00, 0x00, 0x00, 0x40, 0x00, 0x00, 0x00,
  0xe0, 0xd5, 0xb3, 0x3f, 0x82, 0x95, 0x77, 0x3e, 0xa7, 0x51, 0x1d, 0xbf,
  0xf4, 0x4a, 0x62, 0x3f, 0x2a, 0x5d, 0xe3, 0xbe, 0xcb, 0x4c, 0x59, 0x3e,
  0x43, 0x2b, 0xe3, 0x3e, 0x64, 0x07, 0x8d, 0xbe, 0x66, 0xf5, 0x32, 0x3f,
  0x72, 0xb9, 0xd9, 0xbe, 0xe7, 0x63, 0xff, 0x3e, 0xbb, 0x62, 0x51, 0xbe,
  0x78, 0x3d, 0x2a, 0x3e, 0x33, 0x81, 0x1a, 0x3f, 0x8a, 0x75, 0x1d, 0xbd,
  0xf4, 0x51, 0xbc, 0xbe, 0x00, 0x00, 0x06, 0x00, 0x08, 0x00, 0x04, 0x00,
  0x06, 0x00, 0x00, 0x00, 0x04, 0x00, 0x00, 0x00, 0xc0, 0x00, 0x00, 0x00,
  0xfd, 0x93, 0x02, 0x3f, 0x94, 0x78, 0xbb, 0x3f, 0x12, 0x1f, 0xf5, 0xbe,
  0xe9, 0xee, 0x26, 0xbf, 0x37, 0x5e, 0x6b, 0x3e, 0xda, 0x2c, 0x56, 0xbe,
  0x8b, 0x93, 0x99, 0x3e, 0x9f, 0xde, 0x66, 0xbf, 0x8a, 0x58, 0x59, 0xbf,
  0x37, 0xc6, 0xe1, 0x3f, 0x8e, 0x28, 0x8f, 0xbe, 0x6c, 0xff, 0xeb, 0x3e,
  0x8c, 0x3a, 0xf6, 0xbe, 0x1e, 0x1b, 0xb6, 0xbe, 0x96, 0x2c, 0xec, 0xbe,
  0x79, 0x53, 0x3b, 0xbf, 0xa8, 0x04, 0xb8, 0xbe, 0xd2, 0x57, 0x38, 0xbd,
  0xea, 0xf6, 0xb3, 0xbd, 0xca, 0xea, 0x2e, 0x3d, 0xc0, 0x9e, 0x9e, 0x3e,
  0xef, 0x23, 0x34, 0x3d, 0xa3, 0xc4, 0x08, 0x3e, 0x1a, 0x0c, 0x85, 0x3e,
  0x8a, 0xac, 0x92, 0x3f, 0xc6, 0x9e, 0x17, 0x3e, 0xac, 0xa1, 0x9c, 0x3d,
  0xf4, 0x2f, 0x1b, 0xbe, 0x80, 0x16, 0x08, 0xbe, 0xb1, 0xaf, 0xfa, 0x3e,
  0xb5, 0x84, 0xf4, 0x3e, 0xed, 0x61, 0xcf, 0xbd, 0xdc, 0xf6, 0xef, 0x3c,
  0x0f, 0x8e, 0xd7, 0xbe, 0xca, 0x4b, 0x83, 0x3e, 0x29, 0x3a, 0xdc, 0xbd,
  0x67, 0x5d, 0x8f, 0x3e, 0xff, 0x26, 0xde, 0x3e, 0xaf, 0xd1, 0xf2, 0x3e,
  0x4c, 0x5d, 0xdf, 0x3e, 0xf4, 0xca, 0x75, 0xbd, 0x8c, 0xc3, 0x97, 0xbe,
  0x6a, 0x1f, 0x08, 0xbe, 0xa0, 0x2e, 0x51, 0xbe, 0xf6, 0xcd, 0x50, 0xbd,
  0x2c, 0x32, 0xb6, 0xbe, 0x24, 0x33, 0x6f, 0x3e, 0xcc, 0x9d, 0x3b, 0x3e,
  0x0c, 0xfd, 0xff, 0xff, 0x10, 0xfd, 0xff, 0xff, 0x0f, 0x00, 0x00, 0x00,
  0x4d, 0x4c, 0x49, 0x52, 0x20, 0x43, 0x6f, 0x6e, 0x76, 0x65, 0x72, 0x74,
  0x65, 0x64, 0x2e, 0x00, 0x01, 0x00, 0x00, 0x00, 0x14, 0x00, 0x00, 0x00,
  0x00, 0x00, 0x0e, 0x00, 0x18, 0x00, 0x14, 0x00, 0x10, 0x00, 0x0c, 0x00,
  0x08, 0x00, 0x04, 0x00, 0x0e, 0x00, 0x00, 0x00, 0x14, 0x00, 0x00, 0x00,
  0x1c, 0x00, 0x00, 0x00, 0xa0, 0x00, 0x00, 0x00, 0xa4, 0x00, 0x00, 0x00,
  0xa8, 0x00, 0x00, 0x00, 0x04, 0x00, 0x00, 0x00, 0x6d, 0x61, 0x69, 0x6e,
  0x00, 0x00, 0x00, 0x00, 0x02, 0x00, 0x00, 0x00, 0x48, 0x00, 0x00, 0x00,
  0x04, 0x00, 0x00, 0x00, 0xce, 0xff, 0xff, 0xff, 0x10, 0x00, 0x00, 0x00,
  0x00, 0x00, 0x00, 0x08, 0x0c, 0x00, 0x00, 0x00, 0x10, 0x00, 0x00, 0x00,
  0x84, 0xfd, 0xff, 0xff, 0x01, 0x00, 0x00, 0x00, 0x06, 0x00, 0x00, 0x00,
  0x03, 0x00, 0x00, 0x00, 0x05, 0x00, 0x00, 0x00, 0x01, 0x00, 0x00, 0x00,
  0x03, 0x00, 0x00, 0x00, 0x00, 0x00, 0x0e, 0x00, 0x16, 0x00, 0x00, 0x00,
  0x10, 0x00, 0x0c, 0x00, 0x0b, 0x00, 0x04, 0x00, 0x0e, 0x00, 0x00, 0x00,
  0x18, 0x00, 0x00, 0x00, 0x00, 0x00, 0x00, 0x08, 0x18, 0x00, 0x00, 0x00,
  0x1c, 0x00, 0x00, 0x00, 0x00, 0x00, 0x06, 0x00, 0x08, 0x00, 0x07, 0x00,
  0x06, 0x00, 0x00, 0x00, 0x00, 0x00, 0x00, 0x01, 0x01, 0x00, 0x00, 0x00,
  0x05, 0x00, 0x00, 0x00, 0x03, 0x00, 0x00, 0x00, 0x00, 0x00, 0x00, 0x00,
  0x04, 0x00, 0x00, 0x00, 0x02, 0x00, 0x00, 0x00, 0x01, 0x00, 0x00, 0x00,
  0x06, 0x00, 0x00, 0x00, 0x01, 0x00, 0x00, 0x00, 0x00, 0x00, 0x00, 0x00,
  0x07, 0x00, 0x00, 0x00, 0xe8, 0x01, 0x00, 0x00, 0x90, 0x01, 0x00, 0x00,
  0x54, 0x01, 0x00, 0x00, 0x18, 0x01, 0x00, 0x00, 0xc8, 0x00, 0x00, 0x00,
  0x40, 0x00, 0x00, 0x00, 0x04, 0x00, 0x00, 0x00, 0x4a, 0xfe, 0xff, 0xff,
  0x00, 0x00, 0x00, 0x01, 0x10, 0x00, 0x00, 0x00, 0x10, 0x00, 0x00, 0x00,
  0x07, 0x00, 0x00, 0x00, 0x18, 0x00, 0x00, 0x00, 0x34, 0xfe, 0xff, 0xff,
  0x08, 0x00, 0x00, 0x00, 0x49, 0x64, 0x65, 0x6e, 0x74, 0x69, 0x74, 0x79,
  0x00, 0x00, 0x00, 0x00, 0x02, 0x00, 0x00, 0x00, 0x01, 0x00, 0x00, 0x00,
  0x03, 0x00, 0x00, 0x00, 0x82, 0xfe, 0xff, 0xff, 0x00, 0x00, 0x00, 0x01,
  0x10, 0x00, 0x00, 0x00, 0x10, 0x00, 0x00, 0x00, 0x06, 0x00, 0x00, 0x00,
  0x64, 0x00, 0x00, 0x00, 0x6c, 0xfe, 0xff, 0xff, 0x54, 0x00, 0x00, 0x00,
  0x6d, 0x6f, 0x64, 0x65, 0x6c, 0x2f, 0x74, 0x66, 0x2e, 0x6c, 0x69, 0x6e,
  0x61, 0x6c, 0x67, 0x2e, 0x6d, 0x61, 0x74, 0x6d, 0x75, 0x6c, 0x2f, 0x4d,
  0x61, 0x74, 0x4d, 0x75, 0x6c, 0x3b, 0x6d, 0x6f, 0x64, 0x65, 0x6c, 0x2f,
  0x74, 0x66, 0x2e, 0x6e, 0x6e, 0x2e, 0x72, 0x65, 0x6c, 0x75, 0x2f, 0x52,
  0x65, 0x6c, 0x75, 0x3b, 0x6d, 0x6f, 0x64, 0x65, 0x6c, 0x2f, 0x74, 0x66,
  0x2e, 0x5f, 0x5f, 0x6f, 0x70, 0x65, 0x72, 0x61, 0x74, 0x6f, 0x72, 0x73,
  0x5f, 0x5f, 0x2e, 0x61, 0x64, 0x64, 0x2f, 0x41, 0x64, 0x64, 0x56, 0x32,
  0x00, 0x00, 0x00, 0x00, 0x02, 0x00, 0x00, 0x00, 0x01, 0x00, 0x00, 0x00,
  0x10, 0x00, 0x00, 0x00, 0x06, 0xff, 0xff, 0xff, 0x00, 0x00, 0x00, 0x01,
  0x10, 0x00, 0x00, 0x00, 0x10, 0x00, 0x00, 0x00, 0x05, 0x00, 0x00, 0x00,
  0x2c, 0x00, 0x00, 0x00, 0xf0, 0xfe, 0xff, 0xff, 0x1d, 0x00, 0x00, 0x00,
  0x6d, 0x6f, 0x64, 0x65, 0x6c, 0x2f, 0x74, 0x66, 0x2e, 0x6c, 0x69, 0x6e,
  0x61, 0x6c, 0x67, 0x2e, 0x6d, 0x61, 0x74, 0x6d, 0x75, 0x6c, 0x2f, 0x4d,
  0x61, 0x74, 0x4d, 0x75, 0x6c, 0x00, 0x00, 0x00, 0x02, 0x00, 0x00, 0x00,
  0x10, 0x00, 0x00, 0x00, 0x08, 0x00, 0x00, 0x00, 0x52, 0xff, 0xff, 0xff,
  0x00, 0x00, 0x00, 0x01, 0x10, 0x00, 0x00, 0x00, 0x10, 0x00, 0x00, 0x00,
  0x04, 0x00, 0x00, 0x00, 0x1c, 0x00, 0x00, 0x00, 0x3c, 0xff, 0xff, 0xff,
  0x0f, 0x00, 0x00, 0x00, 0x61, 0x72, 0x69, 0x74, 0x68, 0x2e, 0x63, 0x6f,
  0x6e, 0x73, 0x74, 0x61, 0x6e, 0x74, 0x32, 0x00, 0x01, 0x00, 0x00, 0x00,
  0x03, 0x00, 0x00, 0x00, 0x8a, 0xff, 0xff, 0xff, 0x00, 0x00, 0x00, 0x01,
  0x10, 0x00, 0x00, 0x00, 0x10, 0x00, 0x00, 0x00, 0x03, 0x00, 0x00, 0x00,
  0x1c, 0x00, 0x00, 0x00, 0x74, 0xff, 0xff, 0xff, 0x0f, 0x00, 0x00, 0x00,
  0x61, 0x72, 0x69, 0x74, 0x68, 0x2e, 0x63, 0x6f, 0x6e, 0x73, 0x74, 0x61,
  0x6e, 0x74, 0x31, 0x00, 0x01, 0x00, 0x00, 0x00, 0x10, 0x00, 0x00, 0x00,
  0xc2, 0xff, 0xff, 0xff, 0x00, 0x00, 0x00, 0x01, 0x10, 0x00, 0x00, 0x00,
  0x10, 0x00, 0x00, 0x00, 0x02, 0x00, 0x00, 0x00, 0x1c, 0x00, 0x00, 0x00,
  0xac, 0xff, 0xff, 0xff, 0x0e, 0x00, 0x00, 0x00, 0x61, 0x72, 0x69, 0x74,
  0x68, 0x2e, 0x63, 0x6f, 0x6e, 0x73, 0x74, 0x61, 0x6e, 0x74, 0x00, 0x00,
  0x02, 0x00, 0x00, 0x00, 0x03, 0x00, 0x00, 0x00, 0x10, 0x00, 0x00, 0x00,
  0x00, 0x00, 0x16, 0x00, 0x18, 0x00, 0x14, 0x00, 0x00, 0x00, 0x10, 0x00,
  0x0c, 0x00, 0x08, 0x00, 0x00, 0x00, 0x00, 0x00, 0x00, 0x00, 0x07, 0x00,
  0x16, 0x00, 0x00, 0x00, 0x00, 0x00, 0x00, 0x01, 0x14, 0x00, 0x00, 0x00,
  0x14, 0x00, 0x00, 0x00, 0x01, 0x00, 0x00, 0x00, 0x18, 0x00, 0x00, 0x00,
  0x04, 0x00, 0x04, 0x00, 0x04, 0x00, 0x00, 0x00, 0x04, 0x00, 0x00, 0x00,
  0x6c, 0x5f, 0x78, 0x5f, 0x00, 0x00, 0x00, 0x00, 0x02, 0x00, 0x00, 0x00,
  0x01, 0x00, 0x00, 0x00, 0x08, 0x00, 0x00, 0x00, 0x01, 0x00, 0x00, 0x00,
  0x10, 0x00, 0x00, 0x00, 0x0c, 0x00, 0x0c, 0x00, 0x0b, 0x00, 0x00, 0x00,
  0x00, 0x00, 0x04, 0x00, 0x0c, 0x00, 0x00, 0x00, 0x09, 0x00, 0x00, 0x00,
  0x00, 0x00, 0x00, 0x09
};

